7F
A6
A9
D1
C0
AD
57
F8
FF
06
A9
C8
5C
2F
46
7F
3C
AF
18
26
13
F7
8F
81
28
26
34
7A
81
B3
D0
E6
B7
BC
CC
A9
9F
A0
F5
D1
14
CC
66
7F
3C
08
7F
E0
AE
33
C7
3C
9D
FA
43
69
51
1F
24
46
C4
81
9A
BE
E5
1F
55
7F
7C
B4
A8
8A
3D
1E
81
10
48
35
9D
E5
29
FF
81
6F
DB
86
53
46
A6
0E
B6
10
26
81
14
77
90
9D
64
22
40
43
81
A0
26
DB
08
B1
7F
33
5E
5F
5C
AC
53
69
A8
1A
CA
25
7F
14
83
10
BC
A9
DB
CF
F2
D7
3F
7F
89
4E
38
51
7F
EF
12
A4
B9
16
B2
09
