2C
27
1A
18
ED
BE
CE
BE
38
43
05
E7
07
16
1D
01
F5
40
2D
EC
04
C6
B9
E6
EB
0C
ED
D9
F0
CE
44
B6
E2
10
D8
F3
CF
EA
E5
27
CD
E9
2F
E9
22
1F
0D
C4
D8
29
D3
0B
E3
37
EE
FE
D1
FC
FA
D2
24
41
30
EB
C8
10
81
00
FB
14
26
F1
1C
BD
4D
F7
1B
02
3A
E5
03
FD
0D
DB
04
0D
B6
BB
F3
1A
46
A2
D6
37
27
04
21
ED
0F
14
15
09
EB
C2
1D
35
F9
0C
0F
05
09
32
F2
DB
FE
19
E2
44
FA
B6
F6
EE
20
26
19
27
01
08
C2
F7
CB
F6
B0
0B
11
DF
E9
09
F6
ED
ED
E1
F1
01
0B
37
16
F2
10
FF
04
96
C9
F1
A8
F2
3D
D3
FA
13
0C
D9
36
11
D7
E6
EC
B7
A2
04
F9
DD
E4
0C
BB
F6
23
DF
10
25
02
0B
06
D0
A6
42
E6
FB
F5
08
01
0D
D5
14
EF
CC
B5
FF
1E
47
33
A7
B7
F5
1A
03
26
23
15
1B
FC
04
1A
EA
EF
E9
1C
0D
D1
0A
16
F4
F6
CE
0B
15
32
05
17
12
CA
AC
BC
10
E6
2A
F0
1E
F7
0B
27
FE
0C
38
B6
29
06
14
21
17
12
12
EC
11
E6
0F
EA
2C
81
E6
D4
2D
31
37
46
FE
10
11
FD
E4
31
F9
0E
07
B6
A7
47
C6
08
C5
59
B2
0C
B8
E0
C3
31
BA
38
DD
FB
D9
ED
0D
EC
B1
22
02
18
EB
D7
B1
F1
C0
D9
DB
F3
81
DC
E9
ED
EE
13
D3
C7
BA
EA
CA
21
A2
F1
DC
C2
9C
1C
E6
02
B3
AD
05
1E
BD
0F
9C
F4
9C
DE
48
16
AC
FA
F2
E4
D1
04
AA
D2
CB
28
D1
FC
05
E6
0E
EF
EC
FD
09
05
0F
03
CF
DC
12
1C
D5
DE
0C
FA
FF
FE
FE
C3
37
19
2E
23
3B
FD
E6
11
20
E2
14
CA
F8
D2
0F
BC
3E
57
30
6D
0C
3D
06
39
F1
28
2E
A9
27
CB
BA
FE
BE
FA
10
34
A8
E8
CE
09
E6
19
E9
06
44
25
AD
09
BA
0F
B3
16
1F
2C
FB
05
EA
2A
CC
11
CC
CD
27
BE
0C
2F
D3
C2
00
B1
E6
45
3B
20
37
FC
DD
D9
32
9C
34
33
BC
AA
4C
56
DB
12
3B
04
45
1A
4B
48
1A
CC
01
D9
CB
D6
F2
9D
EB
1F
06
E1
1E
E5
07
2D
E7
25
B5
84
E4
D6
1E
28
F0
1B
EB
4F
EE
E3
BB
28
4D
02
05
B7
6F
E5
69
EB
09
3F
51
D7
DB
C4
48
E5
33
D3
15
16
F3
CD
CA
BC
D6
F8
D5
50
F1
1A
10
E6
95
7F
17
1D
C6
EA
E9
F5
1B
25
D7
55
2A
DC
D2
98
C6
03
6D
FA
04
CB
37
C6
D9
34
12
0C
2B
C5
C4
C1
30
42
70
C2
F5
C1
03
FA
BC
48
30
CA
66
21
B2
1D
0F
E2
21
2E
CA
2C
44
3D
29
D8
30
26
23
03
21
CD
E9
0D
0D
14
26
5C
FE
37
0B
E6
F6
1A
EA
F1
03
04
DD
0C
C9
FB
20
4D
CF
DC
DE
D7
DD
15
FB
50
E2
23
0D
41
B1
F6
D2
81
1B
1A
2D
0B
FA
E4
E0
0B
E6
3D
E6
00
DB
D9
9F
08
07
ED
32
E2
FC
8A
CE
E3
DD
24
0E
C4
05
F9
0C
06
DA
E4
05
EA
FB
D4
F7
1D
20
FE
E9
C6
2F
FD
F4
1B
10
E8
F5
F3
18
1F
1A
E1
E0
DB
18
0D
10
32
FD
02
08
18
30
0E
F8
1C
EC
C2
11
B3
E1
24
D2
EA
03
F8
E0
1A
EE
39
14
FD
C8
F1
05
0F
0A
35
17
BC
F2
FE
E6
26
1B
E6
1A
07
DE
43
E5
FD
3C
FC
EE
94
F0
A9
60
00
EC
C5
2C
F8
95
02
CF
EA
10
23
F8
E8
25
B5
F6
3F
CC
CD
0C
CE
81
DF
1A
D9
12
58
06
F1
10
52
DB
EE
DA
46
CB
F8
B5
15
F9
14
E3
35
F8
1B
C9
F1
E6
DF
CE
05
12
03
D6
18
22
D1
0E
05
46
25
C5
EC
DC
ED
EF
19
30
07
19
DC
39
02
EB
F7
01
4E
BC
33
E5
2B
1F
38
F9
08
03
C3
15
C6
D9
16
D9
F2
E3
16
D7
04
D0
09
D1
3B
F5
07
21
F8
DD
FA
E9
D6
D2
2A
F1
0F
F0
E8
11
FC
0E
3B
03
41
08
23
C9
DA
04
B1
07
B3
CC
FF
10
D6
D8
0E
0B
3E
03
D5
18
26
08
05
FD
DF
E6
0C
11
06
04
3C
B6
4D
21
D6
21
1B
09
1A
53
00
1B
04
23
EB
16
24
BC
25
E6
DE
AC
39
5B
5F
FA
CB
E3
03
F4
FB
0F
DD
17
E8
F8
2C
BA
14
BE
13
E0
CF
05
F7
DC
0C
E9
2F
10
2E
F1
27
F7
C9
C4
CC
1F
D8
23
C7
2C
4F
E9
EF
0E
D7
EB
02
EC
D5
F0
19
30
26
E2
CC
F9
EF
DA
B5
2A
B3
F5
26
E2
01
3F
E9
D0
C7
CB
34
B9
2C
14
E2
2F
81
F9
D1
06
4F
39
DB
1C
D9
DA
14
11
FB
F8
DD
EA
F1
F0
A8
40
36
19
69
E2
0A
28
0A
ED
EB
18
BB
27
C2
33
8C
08
37
11
7F
F4
02
F3
02
C0
F2
35
D6
2E
F9
08
0A
F4
CA
16
36
C1
FE
CB
C9
DA
34
DF
04
E6
F3
D8
34
11
E3
E6
18
19
2F
27
FD
12
D4
0E
DD
F4
07
FC
CF
23
E9
13
2D
FE
EB
17
FF
09
F8
C6
01
FD
10
E3
BC
D0
FE
10
27
EB
E7
0B
0B
0E
DC
00
3B
09
0F
F1
35
D3
07
0F
E7
F3
1E
0B
E9
01
11
09
01
05
0A
FA
32
F3
3C
D5
1F
1C
02
F5
F3
FD
07
E9
06
FD
0A
FA
06
9D
FB
15
C6
E0
1B
07
08
0E
24
EF
C3
B2
99
3C
F7
43
F1
ED
A6
07
02
FB
D5
3F
DC
0F
08
CD
C8
00
04
1A
00
D0
D9
1B
D8
29
FB
FE
96
56
ED
B8
B9
23
B2
F0
24
F6
DE
E2
CF
1B
DF
E5
FF
ED
28
0D
EC
E6
2A
1D
DF
CC
1F
3C
3A
DA
16
F2
4F
22
35
E7
29
26
D3
5C
EF
03
CE
17
D6
13
BE
0A
C2
E1
1C
EE
04
36
E0
EC
FE
D9
8E
CB
11
DD
0F
E3
DE
17
35
31
E7
14
27
02
3F
DE
38
3A
FD
16
24
DF
6D
0D
28
5B
CE
DF
32
A0
E3
81
FA
FF
0E
D8
29
E9
27
C2
06
31
D7
FC
F7
CB
E9
BD
DF
DE
AC
A5
09
C7
E8
CC
CD
29
E7
E4
D8
18
11
38
0E
B0
F2
FD
35
3A
DA
EC
FA
9F
23
12
EA
F4
22
39
2F
F5
E8
40
E8
4C
81
64
EF
F9
3C
02
14
FD
C6
08
C0
29
17
E0
2B
DF
CD
D7
23
F8
F0
D5
36
09
0B
D0
9E
DB
E8
3A
18
DF
10
EC
48
E3
05
43
44
E1
D6
F8
E6
61
09
09
FC
33
E0
C6
11
21
F8
13
C6
C5
22
E3
B8
F4
D0
B4
36
1A
F3
A5
0E
06
F3
C9
D8
DB
21
FD
1F
FF
D8
1B
EB
EA
12
05
18
F2
E9
F2
34
F4
0A
B6
2B
39
FA
D6
CF
EF
13
00
F8
3C
3E
C7
19
EA
CF
AE
C3
E7
B2
D4
26
FA
11
FC
02
DF
34
E8
B1
52
31
A9
0E
31
53
3D
12
E4
DF
05
DF
E2
DA
1C
AC
F0
27
BA
4E
68
28
1D
EF
FD
2E
E2
EE
1A
C5
F0
F9
E8
0A
D6
6E
ED
FF
19
03
01
52
F9
12
33
F9
DC
0F
15
F3
56
4A
EF
0B
CE
D8
C3
15
D2
0D
FA
F3
E7
2D
C1
B9
D9
20
2E
EB
EA
09
F9
E6
D9
D8
CE
D2
C8
ED
EF
00
D7
09
F0
09
1D
2A
D6
03
C5
EF
DB
2D
15
DB
02
1C
02
1E
1E
F0
04
10
F6
BD
C4
2C
E8
EA
1F
0E
00
E1
32
1B
FA
0F
33
E5
CB
BB
F0
F5
24
0A
F8
0D
25
28
28
7F
34
FA
02
20
1A
3B
1C
0B
25
17
F5
E2
0A
49
31
35
BD
2D
E6
35
0F
FC
F3
12
EB
22
20
2F
B9
24
D3
23
FB
13
F8
42
F9
FB
C2
3F
EC
FD
2A
F5
E3
16
C3
1F
15
F2
F0
14
23
03
EF
1F
DD
FC
FF
FC
25
05
0B
4A
34
3B
3E
EB
15
FC
02
C3
FF
ED
FC
E2
DA
2A
1F
24
04
FD
22
13
C2
0B
12
FD
F7
FA
16
0A
10
F1
CA
2F
DC
0F
03
11
CD
00
D3
33
0F
18
33
F1
F1
F2
DF
BD
0A
42
E8
DB
21
DD
D1
07
CF
E5
1C
F0
E2
06
C0
AD
03
1F
C3
10
1D
9B
02
E8
DF
EC
28
DC
FF
1F
CD
B1
1A
C3
F7
2E
0E
81
D5
01
1B
F6
EE
ED
18
1B
F9
7A
31
00
00
D3
E2
27
D9
E5
0A
EE
09
DF
0A
F6
38
18
04
A5
BE
FD
00
29
15
29
49
E5
F4
0C
1C
04
1F
0E
28
F8
19
3F
0E
4A
08
E1
2A
0A
F8
6C
D4
1B
ED
22
2B
FE
ED
D9
0C
9F
14
1A
B8
ED
24
16
2A
C6
A8
D7
D9
D0
07
DD
04
8F
FC
2E
E5
09
2B
BA
2B
D4
EE
D4
E6
17
D0
02
2F
A6
E4
D8
CE
03
D3
FB
5C
6C
44
7F
9C
ED
6B
FC
E3
F8
5B
E4
C4
03
10
FA
DF
E9
CC
4A
E3
DF
37
DE
E8
26
E7
F5
04
2B
0F
0F
CE
EE
91
15
19
27
E6
FF
14
4D
A4
EF
49
DC
A7
3F
FE
18
C6
F1
D1
AD
E0
43
18
C3
4A
DC
A7
43
01
DD
46
FD
CF
E7
20
13
1A
C6
66
F3
4B
31
D6
F4
39
FE
10
C2
8E
C3
3D
03
EC
F4
04
08
51
09
21
D0
9D
C3
06
29
CC
20
C7
B4
CD
4D
F8
E1
1B
2C
03
F7
00
43
98
03
D0
FD
21
BF
F5
10
F9
0F
0E
F5
3B
EE
FC
7F
9B
05
4B
E8
1B
0D
F7
21
E6
21
9B
D1
2F
B2
EB
94
05
15
D3
02
8B
1C
89
08
9C
07
EC
15
F1
DC
CB
83
9E
F7
BA
CC
CD
05
AD
21
D5
CA
DC
EB
E9
2B
A6
B6
24
04
F9
05
5E
2A
3A
54
CE
0D
32
FF
89
0D
EA
C3
20
E7
F6
B4
32
36
10
F6
2B
A5
1E
F8
F8
09
D3
E5
18
43
16
14
EE
11
CF
47
03
5C
D6
F1
12
F8
FC
15
ED
1F
D6
2E
35
0C
F5
12
04
CC
0F
EF
0E
FB
9C
62
B2
8E
04
A7
EE
DC
9F
DB
E0
05
BF
07
1A
D2
D0
C7
57
45
64
30
EB
E2
CC
1A
0A
ED
36
A3
CD
AE
36
A4
15
01
43
F2
1D
E7
4E
02
2E
F2
EA
FA
1D
E3
2F
B8
18
35
EF
2B
E4
A3
FE
54
4D
D9
0D
47
2B
28
02
EB
20
E1
DD
E8
08
08
16
EC
13
9F
31
07
31
22
F8
1C
24
C4
81
FB
09
FC
E1
0C
FB
D9
1E
B3
01
C3
D4
06
B0
E2
D3
3D
D6
C5
F0
FC
FE
0D
CF
CD
1A
E0
15
28
1D
9B
EC
BC
35
F5
F7
04
57
24
EC
B7
D6
D6
0E
F6
E0
0C
2F
DD
11
42
E7
D6
13
32
FD
2D
01
18
DC
CB
16
10
F4
BB
FB
F3
2B
34
03
E9
38
F7
F5
FC
DD
EE
7D
06
09
F5
17
E1
F1
0C
CC
09
03
46
E0
49
05
BA
4F
0F
EB
88
37
AE
22
D8
2A
8E
3A
07
FD
F0
12
EC
0D
D6
1C
D5
E2
C9
D4
1C
0D
34
0D
DF
C5
EB
1F
B2
7F
43
5A
58
22
40
3A
31
41
14
01
F7
D1
2E
09
D8
1B
A3
CE
41
17
FA
F3
C1
F4
BA
8D
04
AF
12
F1
C5
03
F4
19
D0
39
49
41
E0
0A
06
42
F6
15
1A
B7
06
2E
E6
F7
F6
CB
22
04
20
FB
0B
45
C0
01
DA
C2
0E
29
0F
96
BD
DD
EA
F2
EC
47
F5
4D
2F
0A
05
4B
81
E8
1D
48
43
1A
15
F6
AC
1B
DA
06
1E
01
D1
C0
8B
D5
3E
1A
FB
FE
F0
0F
E1
F8
3E
E3
F1
75
D6
23
24
0A
51
16
42
1F
F2
D5
C4
15
6E
2D
2E
36
14
11
41
BE
10
F9
99
F3
02
E2
1D
19
32
D7
FE
2C
3C
D4
F1
D1
DC
E6
8A
F0
A7
C9
E6
D7
F1
40
00
ED
1F
AF
22
2B
D7
97
BC
2B
E7
50
0B
20
07
19
28
B4
10
1E
0C
2F
FA
D5
81
0E
14
19
A2
D2
06
C4
41
01
1E
F4
39
E5
41
18
A9
10
11
B8
BE
CF
0D
E9
FC
D1
2D
D1
29
09
27
41
A2
C3
F3
0C
F6
17
1D
58
FC
22
25
25
C1
EA
EE
FD
FE
D8
E2
12
06
DF
45
0B
D0
FB
F3
DB
DB
C9
CF
27
30
FE
EC
39
15
E9
2E
D1
3A
2B
44
30
BE
FA
12
36
EB
3D
2F
47
F7
1E
E8
68
02
E9
C9
16
8F
E4
37
16
13
2A
E8
06
D5
F0
F4
D9
28
FA
A3
1D
91
F4
18
63
7E
E5
2F
E7
2E
D2
F6
E5
D3
F9
B6
3C
FC
DA
CD
1E
3D
05
5C
96
2B
0E
48
D7
DF
05
16
D4
B5
F5
D6
0D
0F
F1
EB
D7
02
F0
D5
1F
EC
0E
EA
29
1E
CA
24
EE
F6
36
1B
DD
F9
EA
29
FE
E1
0E
C1
B0
FF
15
FC
2B
39
D0
51
ED
28
FD
42
CA
F4
B4
E4
22
E8
04
F7
81
A1
27
22
2F
DD
CF
EE
FD
E2
1C
E4
F8
2C
F8
03
E5
AC
1D
F9
EA
DD
E0
10
D8
C6
10
CA
DD
F1
0E
16
0C
1F
15
1B
1B
11
0B
4C
0A
F1
38
BD
DD
39
E5
E3
09
D4
BB
D9
BB
F6
22
3B
F3
04
34
EF
E4
E8
0C
0A
0D
E9
CE
9E
D8
1F
36
1D
3F
EA
EC
ED
1B
BD
48
21
36
0C
0D
D3
0F
F9
36
E5
48
E5
27
0C
0D
B8
D2
1D
41
20
E2
E5
2B
04
E8
CF
16
EB
EB
FD
0F
D8
EC
0F
09
14
E4
A9
F4
12
F2
C1
F9
E8
FC
33
D7
E6
03
2F
EC
16
0F
FF
26
24
08
C5
FB
3B
E0
4A
E6
1F
EB
E2
F3
F2
E3
E8
D3
27
E5
FD
C9
26
FE
FE
E9
32
E7
FA
28
15
FD
17
19
2B
CA
EE
E1
32
33
0D
15
30
F8
E1
DC
DF
0A
3D
F3
11
FE
FF
DE
24
05
F5
15
2C
2E
10
9F
D3
16
E0
09
F7
30
A8
22
36
DC
37
40
26
DF
2C
E6
81
30
21
37
D5
1D
8F
28
17
0C
1D
3C
FF
FE
EC
BC
35
1D
3D
1B
C9
FE
C5
F1
06
39
FF
F0
F7
CE
FE
F3
FA
D7
FF
C7
43
02
E6
D0
13
F4
0F
2A
F9
CB
CE
06
BD
B2
F7
F1
34
26
CF
BF
0D
04
11
29
AB
12
E6
BD
EE
E9
13
E4
01
0A
D8
C9
FA
13
CE
F9
FF
40
39
F0
03
81
DC
FD
F7
2A
25
DF
C5
D0
D8
09
09
FE
04
E2
21
EE
15
EE
D6
FC
00
04
1E
04
E5
F8
DF
FA
10
C3
21
12
DB
D2
08
F4
29
CA
39
C4
FF
28
D0
40
2C
CD
28
38
2F
33
27
FF
F2
06
F5
FB
17
F0
36
0F
23
F6
0E
FC
06
37
12
0A
D6
29
DC
12
1A
E5
06
0F
FE
FF
20
FA
00
09
21
11
E8
29
4D
EF
09
FA
2F
E9
ED
DA
9A
0F
C1
D8
BA
4F
20
D5
D7
10
C3
E8
CF
3A
CF
2F
81
D9
D5
F1
0E
EC
F6
3F
EF
BF
FC
2F
BF
1F
02
24
C7
13
CD
06
00
00
AF
FD
2C
33
FA
ED
E8
2E
E3
FD
33
E9
FC
E2
11
E3
45
64
FE
F8
EF
DD
C4
2C
FB
36
B5
E6
F9
21
24
11
F5
54
F8
D3
05
F6
AB
4E
F5
39
07
17
29
40
30
40
B9
7A
DF
30
CB
FB
AB
0E
FF
F3
01
0A
0A
D0
25
02
67
D6
D8
25
F6
E9
10
E1
FE
EB
56
C7
B8
D3
23
E8
DA
0E
19
E6
2C
12
29
1A
D8
EF
36
1A
21
30
CC
26
01
FE
26
24
08
20
73
23
BC
FB
F0
07
CF
1C
0F
40
1D
E4
1D
CB
12
FA
18
EE
EC
EB
CE
19
40
23
0E
1E
23
0B
0F
0E
25
F2
2B
CD
EA
0E
32
BA
C2
E6
1A
F6
F6
10
15
E1
E7
0F
CA
10
33
01
3F
EA
D3
FB
47
11
C4
45
0F
D1
DB
12
BB
F3
30
DA
E8
28
06
00
2E
D4
F4
01
16
D6
0A
0B
81
0A
3A
F3
ED
11
F9
29
FB
D8
AF
54
CA
3A
0A
E8
F9
1E
14
43
2D
E9
23
EE
F6
CD
25
D7
03
1E
F6
08
18
B4
F8
43
1B
CF
09
CF
12
EE
22
9E
E4
1A
FF
24
C3
C4
2A
10
ED
EA
07
1F
E4
E7
FF
EC
1D
16
FC
ED
B2
1B
9D
02
BC
40
97
88
0E
0A
B9
C5
1B
EE
1C
48
2E
BD
EC
1F
1B
53
69
F1
D3
44
29
F0
B0
14
D4
C8
1D
C6
98
E8
81
02
09
C1
FC
35
EC
2F
E2
0F
BD
0C
EB
FB
F5
DC
29
09
F0
0C
FD
F8
00
2D
48
24
DA
19
30
C3
F7
DB
FF
68
2F
0C
A9
EB
F9
01
EA
3C
03
FF
D6
27
D1
D1
EE
EA
4A
47
22
F1
1A
EA
19
14
02
42
2F
16
24
ED
CA
1B
D6
10
06
F7
CC
02
F9
E0
D9
CD
E7
3B
18
63
EA
C5
39
EC
F7
12
08
31
08
DA
10
EE
24
DF
36
49
DC
D3
E9
E5
FA
EC
17
F6
E9
FA
07
04
D7
1D
0F
F5
36
D4
1B
FB
01
D0
10
48
C6
DB
00
FE
FF
D8
FB
13
31
E5
FD
E4
DE
B1
03
16
23
E9
23
C7
1A
E4
FA
D7
FE
36
0F
F1
EF
C4
07
F5
D7
F0
F1
D8
34
0C
10
33
19
B1
F2
FB
10
E6
E0
E0
17
F0
D5
F0
2F
2B
00
E8
F9
09
02
2F
18
E2
D9
15
F9
DE
D7
25
07
1B
13
D9
12
15
0B
37
18
EE
F4
1C
E3
C7
0F
0D
AF
4F
35
2B
7F
1A
12
35
C5
E1
0A
03
AC
07
D5
D1
E3
0C
F7
1F
4D
F4
0D
1A
D1
BA
30
FE
0F
06
EC
D5
F4
E2
1A
ED
FB
EC
15
CF
E6
E0
44
F0
08
61
CA
D5
4B
D7
F3
0D
B0
C8
F8
04
3F
CC
40
36
BE
26
19
17
FF
21
24
65
E7
C2
EC
D4
12
10
D1
42
0A
F0
1D
D7
FC
F4
23
38
DC
FA
C5
08
0D
42
81
24
19
DA
F8
EC
32
C2
FB
BA
13
FB
02
0F
34
E3
C9
23
3F
FA
4B
FB
37
F2
C4
DD
E3
02
FF
C8
B9
09
EC
DB
32
D1
68
E7
07
EE
EC
D1
D6
1C
0A
F6
16
1D
F6
B5
DB
27
07
CA
12
C9
72
EF
CC
1F
18
EE
EA
FF
31
FB
0E
DA
32
1E
3B
AD
30
2B
D7
F5
D3
33
C7
1D
A2
36
00
A0
24
30
91
18
19
FB
F2
E8
E4
45
FD
D0
8E
5E
D3
13
C6
16
27
E7
24
58
1A
05
04
17
00
0D
F3
19
E4
0F
DE
D0
F1
D6
DB
F6
E3
C5
00
1F
E3
2D
13
18
DC
CF
3C
19
E4
FB
F2
F0
FC
E4
0B
28
06
E6
E1
FC
69
05
2F
21
22
1B
C1
A5
8C
1B
1C
1B
CC
D2
63
3C
09
0A
D6
FB
19
E3
D7
19
B1
2A
D7
15
1D
D5
53
DF
BF
00
81
AD
DB
E8
28
2A
F9
C1
E0
B5
D8
D2
44
2A
A4
39
BB
12
CF
30
CB
68
B1
9A
A5
98
54
0B
72
46
E5
F1
E6
2E
8C
38
24
16
D6
D8
AD
2A
03
4B
A3
74
34
DA
D4
3E
E3
11
F8
F5
D3
38
04
FE
18
4B
86
50
C2
C9
FE
D5
EB
60
E5
EA
1B
53
2D
02
FB
FA
09
1C
C9
DB
99
E6
BD
27
E3
AE
CC
DA
BE
CC
47
0B
DB
28
FA
D3
EB
37
AD
32
21
D0
D7
FA
E8
E8
30
44
F8
33
FE
02
02
0B
D8
4A
38
37
7F
15
7D
30
D1
E2
47
06
0C
27
E2
0E
05
BB
00
E7
3D
F4
0E
E5
3E
D6
61
F7
0D
04
05
10
0F
E6
9A
D6
F0
D8
24
D4
0D
FD
30
DF
2D
15
22
F5
40
EE
A5
E6
FF
EC
E7
E8
ED
F7
C4
09
E9
BD
F9
D4
13
FF
CA
24
B6
E3
FB
02
28
CE
C6
2B
1D
0E
34
C8
1C
1C
E3
DB
48
27
08
31
35
0A
0F
10
05
2A
CB
24
24
CB
1A
56
3E
CA
9F
B1
E9
C4
2F
00
FD
0F
04
24
0F
CB
D3
DA
BF
E8
FC
93
0D
3A
BC
D9
DC
31
C7
47
1D
DE
23
54
AC
E9
F5
09
00
27
27
DD
DB
EE
F4
81
C8
28
EE
A6
0F
CE
58
0E
F4
C0
D2
38
B0
F5
FD
C3
F4
E1
B5
1A
D7
05
96
ED
E0
27
FD
0B
E9
19
D7
DA
04
1E
29
DE
F7
ED
20
DC
F8
D2
4A
4F
E8
0A
28
19
D0
D7
10
14
E3
F4
BA
DF
2B
11
07
00
5E
E6
1E
4A
CE
69
F4
C7
08
2D
DB
D9
D9
47
CF
1D
06
EC
3B
4A
D7
4E
1A
2B
1C
74
10
0C
EC
0A
02
55
15
C0
34
F5
AC
4D
00
0A
7F
24
19
4E
8E
21
0B
45
D3
C2
00
FE
0C
FE
D0
34
5E
DC
20
F4
F1
EB
14
B0
C9
17
D9
0F
18
CF
B5
12
0E
E5
EC
D3
0E
09
0E
C7
09
59
24
FF
11
FD
E4
E4
A3
13
0C
04
0F
17
E7
DB
E8
0F
02
07
1D
32
34
FF
E4
F6
E6
34
0F
11
A6
14
07
E2
EF
E3
E8
0F
F6
F7
30
18
E8
FE
D7
22
FB
FC
24
20
01
FD
EB
30
10
D3
EB
F5
E0
D6
1F
09
0D
FB
11
0C
F4
EB
36
FD
06
CC
F7
FC
16
03
07
F1
25
E3
04
F7
18
16
03
1E
CC
9B
FC
1A
F0
18
37
02
BA
D9
00
D1
CB
FD
33
DF
09
46
13
24
3E
EF
C9
42
2A
CD
EB
E9
0A
C3
09
C5
D5
F3
1F
20
E4
C3
15
16
40
81
4F
F7
15
35
EA
18
ED
09
04
06
CD
B0
F3
59
EF
12
26
E2
18
E8
06
0E
21
14
27
3E
02
21
E7
E6
07
3D
B2
D6
A1
B4
C2
FB
EB
C8
1A
C9
28
0A
1D
CE
30
04
46
FC
40
2C
C6
32
CD
06
2B
F8
C7
C8
FB
1A
12
EB
28
19
C3
C8
DB
CA
10
F6
F3
FD
DF
FD
20
18
D9
C2
C0
E7
DE
C5
EE
F1
F0
12
E6
0F
D3
D0
EA
E7
EA
F2
62
FC
34
1A
11
04
08
E1
46
EB
D2
CD
CB
32
CA
33
EF
0D
C4
0A
F9
2C
42
3A
EB
ED
D9
13
56
EB
FD
44
D4
CF
19
07
07
17
0F
E4
D6
E5
C9
08
EA
C4
23
51
0C
E8
2D
BF
1D
22
F1
E7
41
17
DC
1C
F0
F9
E5
73
10
1A
1C
26
0C
02
09
EA
AB
F5
F3
AE
2D
15
3F
B2
D7
10
BB
D4
FA
F4
D3
F0
81
D3
E8
C7
F2
21
1A
ED
13
12
B9
E5
F9
28
39
47
05
EE
17
0D
E9
05
38
03
D4
14
F9
E4
38
26
F1
E8
0D
CE
F6
E9
28
02
1A
17
05
03
25
E4
F3
29
15
F0
F9
D2
C7
F5
D2
03
E4
0B
35
E3
19
4A
F7
EE
D8
A6
F7
41
32
21
EE
71
9C
DF
