91
C7
27
E4
1E
48
FA
44
ED
57
2A
6F
41
0F
78
09
7F
DE
12
88
D0
E8
6D
DC
F6
8C
86
C7
C6
D4
38
57
EE
36
C6
5E
E0
93
39
F7
2A
11
7D
FC
1A
90
35
F1
8A
52
0B
7F
33
8D
02
65
40
2B
3F
D7
87
73
1C
15
8B
C3
D8
65
83
A7
2F
D8
3E
3A
41
E0
74
78
BA
DD
C1
64
0B
F3
8C
0B
57
CB
0E
63
1F
CB
08
7B
53
D7
6B
09
F2
7C
7D
48
E4
19
E2
C3
09
9F
08
5F
1F
FB
3E
A0
7C
20
F9
94
AD
7F
B1
20
C8
E2
55
93
50
E7
16
D1
1F
EA
32
9B
C2
16
FA
C3
2A
8F
8F
C3
F4
28
FD
1C
E4
20
FC
70
78
E2
BD
F9
00
26
75
A6
98
4F
6A
92
2A
DB
35
A5
8A
92
5B
98
B5
20
FB
F4
E1
78
F2
1B
F3
3F
40
21
84
AE
44
6F
3B
A0
A9
16
DE
37
36
33
DC
24
C0
3F
62
CF
F2
C6
C7
65
D4
B0
B1
1E
E0
DD
03
36
02
F9
41
9D
33
34
2F
ED
53
38
0F
A2
32
57
92
4C
D9
80
4F
CE
05
32
60
6F
01
2D
1D
D9
1F
F0
FD
D8
3A
F8
74
3D
E4
28
BF
EA
DF
F7
93
B5
73
C9
28
1F
70
AF
D4
70
8F
A0
0F
C0
85
F2
60
F0
CA
1F
F9
8B
9E
17
03
D3
24
FC
7C
65
D6
03
2B
9E
AD
B6
E0
A0
DB
2F
05
F5
17
31
DC
00
F6
CA
27
F7
00
22
5A
BF
81
3D
6C
95
DB
0B
48
D3
23
C3
77
96
B5
64
4A
B7
74
19
DC
4C
99
BC
43
8B
03
F7
16
29
D2
9A
FC
A0
FB
88
E9
14
D4
AF
ED
4C
FA
41
0E
98
8D
3D
F6
83
18
64
3D
3C
5E
9B
65
60
6E
C6
14
B7
24
4F
20
DF
05
7F
11
F5
38
2B
32
97
78
68
AE
71
2E
9B
35
68
64
A9
F8
02
E7
4D
21
1B
A6
5B
1A
A7
2F
E6
00
20
F6
48
FD
7E
ED
D5
94
04
9B
BE
09
B0
A5
79
82
90
E2
BE
7F
D0
50
8E
88
54
FE
01
AD
DF
01
E0
05
33
73
3F
47
EC
F8
40
FE
03
0A
9F
1A
6F
A8
17
87
85
28
C8
DB
48
E2
8F
13
77
9A
E2
1D
2A
57
6B
2B
28
20
90
7F
7A
E2
28
EB
72
C8
5A
1C
DF
68
0D
78
B7
FE
1F
C2
40
2F
C0
4B
28
09
FD
FB
A6
F8
29
C9
8D
E2
67
F6
03
56
8C
90
9B
F0
1E
F9
18
91
17
DB
38
7B
BA
68
0F
B2
35
04
5F
7E
23
2D
7C
0A
80
96
EE
FB
F8
38
80
FE
D6
C0
94
E7
57
19
93
0E
5D
3C
9B
02
CA
FB
41
4A
31
28
DF
BA
E9
20
18
07
7C
F7
E4
DC
28
DD
C9
EC
28
88
F6
76
D4
59
19
BA
F2
97
80
53
78
FF
0D
E8
E9
06
5B
0F
53
35
53
05
D5
75
02
BB
4A
B9
D8
F0
A2
6A
27
7B
A2
9A
17
C3
2E
A4
A4
6C
3F
17
CE
34
72
CD
C0
E8
30
DF
3F
01
62
5B
45
9B
1B
3A
CB
6A
13
3C
D3
1A
2B
1F
3D
CC
14
DF
D0
A8
8E
4F
75
25
3C
8D
90
67
A0
FA
6F
D5
C9
18
1D
03
CF
31
A6
88
95
5A
6F
B0
77
0E
9E
DE
A6
CC
0E
EA
28
57
B7
34
A4
D6
70
EE
10
F8
9D
0B
AB
06
3B
07
F7
3A
A2
35
15
55
98
C7
E5
4F
A3
AF
88
C1
BC
93
D8
6B
05
BC
57
F0
AA
25
A1
1D
DB
32
80
77
00
DF
E4
48
89
F9
4B
8E
F6
41
0F
97
E9
30
CC
6F
BE
40
F8
E8
48
F3
3B
0A
17
AA
37
5F
AC
07
38
10
04
97
28
7E
F0
DC
24
DA
B0
77
37
AC
BC
D7
66
C9
08
DD
4F
13
3F
1D
49
55
E4
76
1C
F4
E9
7F
5B
50
37
05
1F
06
95
7A
74
91
D3
17
10
3E
63
73
14
29
5F
7A
05
AD
CC
06
5C
A6
B3
A2
EF
84
60
F8
3C
FF
81
0B
6F
24
C9
05
3F
69
A6
43
7E
04
75
87
9A
A7
40
9B
52
77
67
88
9B
80
9E
E0
05
9E
2B
36
3C
00
E8
7F
DA
F9
CA
DE
40
6B
64
4A
9E
6C
76
DA
D5
E0
03
C1
5F
7F
E8
37
01
87
C0
F6
40
EF
B1
05
EC
40
D9
2F
A9
B4
F8
12
D2
38
DB
11
F6
3E
CF
AC
E9
96
94
D1
CC
75
2E
71
4B
C4
C7
5C
05
FD
1F
13
23
13
56
37
4C
88
D4
EF
A0
70
E4
69
9F
0B
D3
B3
AA
FF
40
CD
EA
4C
37
1D
AA
52
84
A1
01
01
FF
FF
FF
19
68
CA
B3
EB
14
8C
B5
44
69
CC
12
C4
42
F9
91
9F
98
2B
C9
43
13
CB
6C
C8
1F
21
27
5F
BB
04
14
10
0C
EF
5E
79
BE
8F
1E
D9
7E
F0
02
80
7B
36
CC
55
32
4B
7D
76
6D
AA
0B
48
DB
20
B3
2F
62
3F
30
FF
88
E7
9A
EE
40
FF
88
EC
B0
FD
10
96
04
2F
C0
6F
8D
1E
FC
F5
09
80
81
80
28
08
E8
0A
A3
1A
EF
E2
F2
79
E0
5D
1A
E0
04
E4
D4
92
83
9C
CE
F2
4E
E0
0F
F0
7D
76
F2
8F
C0
FB
68
F1
C7
52
A0
EE
39
45
4D
64
97
1E
67
02
C6
D8
C0
F4
66
FF
BE
60
17
0B
5F
7D
93
A4
04
DB
E2
61
A0
8F
FC
06
30
C6
5F
EB
8F
E0
07
F4
C7
17
B1
15
9D
F8
9A
A2
70
C6
29
86
FF
4F
C8
94
06
F8
3E
2B
1D
01
21
B8
B6
3D
0C
F5
80
9F
FC
43
1C
DD
D0
87
80
6B
F6
B8
79
37
18
36
93
7B
39
C8
70
CE
2D
76
7D
10
2F
49
70
5F
AE
FC
00
F8
9E
B9
10
73
7C
84
F1
EA
91
85
D8
75
81
66
0F
BD
3F
F4
91
9D
90
6F
90
9C
7F
F0
20
B4
15
8C
71
72
13
F6
53
35
77
CB
28
B0
D0
5F
6C
33
7E
34
7B
A9
AC
2F
78
7A
08
F3
34
45
14
D1
B2
CB
B4
FB
D7
20
FB
AE
B7
01
27
D1
5B
10
0F
C8
13
86
E1
7B
DC
32
91
82
6E
40
AD
24
37
32
F1
2B
68
FF
88
FD
78
F4
EA
D4
42
E9
BF
E0
64
D2
0D
A2
8D
55
B1
2F
4A
72
F9
EC
31
84
63
0D
FB
CA
D7
56
80
3A
78
A7
E8
FE
C8
80
0C
F5
CE
E3
A0
FF
45
F8
04
D4
B1
EA
61
B5
C9
5F
F4
2F
06
77
28
D3
24
E9
F8
E1
31
11
B7
11
DF
3D
D0
80
54
9E
95
31
4B
AF
DE
2D
48
23
72
7C
FB
C8
11
CD
85
0E
D7
92
BF
6A
80
8F
3D
F4
20
FB
5A
80
B4
F5
5E
A9
A2
AB
21
3E
45
D3
49
63
C8
FF
51
40
2F
41
AB
01
9D
8F
3D
4F
A0
CD
90
D6
20
E0
F6
C9
77
FD
5D
81
E0
D3
39
C9
23
50
E9
7D
45
F9
27
CA
19
85
F2
8C
D4
A5
FE
50
24
EB
09
DF
65
A0
73
C2
07
35
E6
77
42
AC
68
EF
48
8B
9C
39
53
4E
51
EE
2C
E8
84
3F
69
01
E7
94
74
77
A9
F0
80
D3
D6
D1
AE
F4
9B
E1
60
B1
14
E8
5A
72
7C
78
1B
70
EB
85
C9
DF
E0
63
C0
6B
F0
C7
64
D4
0D
F9
4B
F2
93
27
71
25
8D
1B
E9
86
2C
EF
1C
4B
B5
0D
8F
1B
91
DE
48
62
DB
0D
FF
08
8D
42
C0
EA
A0
FD
C8
FB
E2
E8
DA
E4
26
D5
03
39
AE
E8
49
F1
CE
C8
08
DF
7E
0D
D3
17
C8
8F
C4
96
06
EB
F3
10
E9
48
37
14
33
8E
D7
2C
91
1B
1B
1A
B3
FE
7C
CE
A0
C7
E2
19
58
F9
E7
F8
46
B0
13
19
1F
3F
6F
27
D4
A9
00
F1
74
79
CC
EB
48
EE
B4
C7
5C
98
65
32
59
45
7F
30
B9
C1
90
9D
E0
CD
E1
2F
0C
6F
A0
E0
C8
D0
FF
E6
F7
C2
C6
00
6E
72
FB
D5
C9
C7
4C
B0
C7
DA
E8
C4
3C
42
A5
34
BF
E2
72
E1
10
F8
0F
77
FF
04
88
07
E8
09
F8
CE
DD
E8
30
76
A5
39
C6
3B
65
06
1B
5B
4F
90
9C
AE
90
75
F0
CD
9A
E2
A0
9B
C8
CC
AF
C4
13
D1
69
22
3D
FB
0D
88
90
FF
86
23
4C
09
DB
6B
59
94
F1
88
A6
A6
7F
B3
61
C7
48
F8
60
FA
D2
CA
BA
02
13
2A
F8
85
65
EA
B4
F3
2D
A2
F2
D8
78
D1
76
E7
99
64
5F
31
2F
7C
03
D4
1F
06
BF
20
6A
D9
E0
BC
38
C9
18
B9
52
CF
CD
5E
84
7A
6A
1F
03
BA
13
BE
6B
8D
84
03
3F
03
2F
97
19
F8
61
F5
88
BF
E4
0C
4C
67
E8
74
94
9D
7A
F0
74
D0
7E
82
38
B2
BA
2B
FE
1B
0E
37
01
98
1C
F7
37
25
96
0A
BF
15
1B
03
AB
1A
A7
7D
96
0E
86
37
87
21
AC
20
97
F1
1F
C3
04
AC
20
21
7D
EA
FF
E0
C2
B8
B5
CD
D3
E8
42
2F
E5
3C
4C
5D
30
21
45
F1
20
66
1F
A3
06
BB
38
06
F8
66
A9
EE
E8
E8
48
F2
1F
F4
1B
DB
57
29
CF
84
1C
47
41
16
2D
4C
64
37
6B
BB
87
C1
74
04
7E
66
BD
44
F7
40
B3
18
1B
0C
BF
43
7F
27
B2
D9
60
A9
FC
FE
80
AC
00
65
6E
0F
58
56
7C
14
53
7E
6F
F9
01
B6
CC
0B
48
0E
7A
58
86
E7
DC
D4
DE
42
82
42
B2
15
EC
E4
98
E4
38
FE
13
32
D9
11
8F
3F
27
84
D0
91
E0
44
7F
5D
A0
FE
80
D0
4B
B2
0B
24
D5
1B
7F
62
ED
A8
A0
D5
36
BB
64
0F
A9
08
93
29
EE
9D
C0
33
88
1B
57
DF
24
F1
B4
E8
37
FC
01
07
3B
9F
A7
05
F6
3C
D5
A8
A9
2F
E0
33
8D
16
BD
03
A1
BD
59
63
C8
1D
FE
02
7F
30
61
DC
6F
F4
90
F8
A2
CE
51
AD
C7
48
34
E6
4E
E1
58
A6
3D
11
E7
D0
F8
F0
32
D9
1D
2C
7F
2C
67
0B
AA
09
76
F8
18
C8
70
9E
7E
F0
BE
E0
B0
59
9C
36
5C
F1
3F
B5
D0
46
60
E5
FE
D2
3F
4B
1F
15
0C
41
C2
0F
E8
67
20
FE
74
FB
E0
FD
C2
91
20
F7
D2
8D
30
5A
B6
E6
03
EB
25
31
FA
02
FC
DB
A4
F6
E0
20
3F
FD
41
0B
9F
05
5B
83
27
86
26
7C
4F
14
22
FE
99
6E
49
19
3B
24
1F
60
F4
FD
90
A9
60
0F
C8
27
38
E8
3D
FC
0B
94
35
17
87
26
EF
56
E5
52
E4
D7
4C
94
7F
C2
E8
5A
BA
3E
8B
31
2F
BB
01
F2
A9
9D
93
41
7A
32
A1
FB
AC
2A
94
BD
37
44
87
53
61
47
5F
39
B9
27
73
2B
19
EE
20
E6
4A
03
DF
0F
DF
E5
00
B0
72
A1
68
FD
D6
C0
F1
F7
AC
CC
24
9B
64
A4
72
2E
D4
30
BF
16
AB
C1
B8
CF
64
0F
CC
BF
04
17
60
DA
56
E5
B3
61
C7
CA
07
72
9D
D8
50
DC
A4
FD
CC
3A
0A
17
D3
18
C7
8C
17
27
7A
B7
40
EE
F4
F2
E0
F0
A5
F9
1F
40
37
8C
06
43
3C
73
47
22
68
BE
7D
E6
7B
84
20
8B
FE
67
C5
5E
85
F8
08
79
C2
8F
DF
30
11
32
9F
DD
69
29
A8
4A
DB
33
C6
4D
63
B0
6F
42
3B
E8
2F
E4
47
3F
84
3B
80
9F
98
46
78
E1
76
AE
07
99
8B
26
2B
5D
E7
42
21
3B
FF
24
AA
7A
C6
E0
91
F7
C8
1A
52
41
0E
5A
8D
6A
15
3E
03
12
F7
16
3C
A6
F0
D9
C1
3C
F0
CF
F5
F1
B2
61
B2
10
81
B4
4E
D5
72
8A
76
47
9D
A4
23
FC
50
F0
83
3F
FF
00
20
63
2B
FD
D8
D1
10
BF
53
00
87
4F
77
3F
64
10
37
D2
60
6B
F4
43
63
A8
8D
F5
0A
BB
21
07
FF
01
E0
12
93
9B
F1
6B
BC
F6
26
0E
F9
5B
93
DE
77
35
E1
1F
C7
08
4B
FA
15
EA
60
BF
8A
E9
6E
82
A8
9B
3F
B3
C4
B4
17
1E
13
45
A3
41
28
3F
0A
2D
FE
E5
49
FC
31
C5
E5
42
F5
27
F8
9F
60
67
38
C7
3E
F1
61
1B
D7
21
75
4E
87
29
45
7A
1D
50
A2
3F
73
56
32
37
B7
08
71
8C
2D
68
30
7C
39
47
FC
E7
E0
C5
A5
F2
1E
A4
A3
99
87
09
EE
92
79
E7
E0
4E
10
BC
8B
9D
7D
2C
92
02
29
0F
D7
31
95
05
35
1F
39
56
39
9E
C0
44
7C
55
18
C6
FD
EC
04
C7
A4
31
A4
C7
CC
79
13
49
B9
D2
23
83
27
09
FF
AB
23
08
68
DD
91
FF
C0
F5
08
8D
1D
F4
E2
11
B4
74
A9
D7
13
11
C7
7F
E8
7B
B0
EC
2B
20
2D
0E
23
29
47
4F
D7
03
40
9F
40
7F
DA
8C
D4
E7
C0
81
D5
7D
92
51
98
7F
20
BC
B4
EF
12
E4
2B
F8
87
D4
05
00
DF
78
77
36
7A
AD
A0
FE
D2
21
02
B5
BC
E3
A6
EF
16
22
57
AE
09
F2
0D
9C
0F
0E
DB
17
4E
5F
60
E2
A8
64
26
FC
47
16
2D
46
9B
2F
37
08
73
2E
73
19
46
D7
8E
B6
88
7F
80
EF
D7
80
06
EE
AD
0C
9F
20
3F
49
88
8D
F6
B1
E8
E5
F0
F4
6C
E0
EF
F9
FF
D5
C4
80
87
BE
26
C4
8D
C6
1C
E7
5F
5E
2A
9A
92
F3
40
CC
E3
61
C6
07
DF
29
B8
F0
BA
77
03
1A
47
06
3B
3E
87
EC
02
F3
E4
86
3A
06
1B
30
4B
75
D8
10
31
61
1B
37
BF
33
BC
3F
F2
F5
29
A8
D1
74
10
60
99
1E
6D
07
6A
EB
A4
E1
38
23
7B
3C
0F
96
A6
E3
00
CD
7F
28
BE
00
06
89
FC
1F
B6
1B
93
FE
A0
3F
92
8D
E0
56
99
19
AF
75
0B
7C
90
F2
C0
6E
E4
D5
9C
F2
20
D0
7D
E0
3D
85
87
C6
BD
2D
C6
D0
D8
D3
B4
E6
28
AD
27
F1
80
8B
5C
71
FE
58
17
1D
5F
32
E8
0D
5A
43
F0
2B
D0
5E
AC
ED
A8
DB
08
ED
C3
E7
DE
06
93
B8
8E
BF
B0
88
A0
51
DE
7B
9E
30
D0
A4
A0
FE
DF
12
0B
01
60
A7
4F
2E
9B
FE
98
9B
20
0F
AB
1B
31
07
28
02
07
22
0D
74
FD
9D
60
29
A9
09
CB
03
FF
BF
7B
DF
F4
84
05
04
40
28
63
C1
0C
5E
4B
9F
8A
DA
A4
FF
88
8F
84
84
5B
EF
DF
A2
84
10
85
1F
BF
1A
9B
3E
C0
D5
68
14
1F
9B
AC
85
E4
DE
CC
C0
E7
FA
CE
83
70
D6
F0
DA
EE
3A
4F
C5
8F
43
02
79
37
6A
E4
00
18
5B
AC
4B
5A
FF
D4
F1
13
85
A5
6E
65
AA
86
15
1B
60
52
41
62
C8
0D
1F
F7
34
13
0C
11
2F
11
DA
F0
C3
E2
A7
1E
E5
E0
E7
2E
C8
0A
68
4D
71
D4
5F
4F
56
34
70
11
FD
76
12
C7
92
59
BF
59
AD
40
B5
A0
D2
30
F9
58
7B
6C
C2
E0
D8
94
7A
6D
E7
1E
AD
00
89
E5
3D
47
07
3F
D1
20
EE
38
F4
FE
05
8D
06
4B
08
63
CB
23
26
DF
3C
AD
2E
AA
07
88
47
45
6D
9A
75
3C
DE
6A
C8
CD
05
FF
24
A7
29
C9
5F
84
FD
C0
F3
68
00
D8
77
E4
FE
20
D3
E7
E0
0D
FC
6E
9C
E0
CF
48
52
24
B8
19
59
E5
20
42
BE
DB
1D
A7
0D
4E
EF
5C
1C
21
1B
C2
DE
67
4D
6C
7C
DF
55
5B
60
3F
E0
25
AF
F0
57
A0
BB
84
6D
F4
E4
66
C8
19
5B
6F
40
E5
49
E9
00
ED
A8
D2
4E
BF
FF
C2
EC
1D
D2
44
3A
F8
BA
4E
60
99
50
9F
02
3F
6B
64
3E
30
F3
A8
FE
D8
12
10
FD
68
EC
F6
81
E2
41
D9
E9
73
84
72
85
DE
3D
D2
7D
90
19
2D
D8
4C
9E
DD
12
75
04
BF
2A
87
43
E2
5B
2E
32
FB
19
4B
1B
36
BC
38
C0
2B
B2
A2
1F
FC
16
A6
8A
C0
E9
C8
C2
BB
AC
0F
4F
4F
0B
3D
2D
83
25
59
2E
0D
5A
A6
8F
8F
89
D3
F7
A0
D4
56
6B
E2
11
66
DE
34
F5
72
DC
53
E0
5B
03
3F
0B
5B
33
F2
68
00
1E
D7
37
1F
4D
03
3D
25
47
FD
CA
82
78
00
EE
CF
06
D7
48
E3
C8
09
3F
DF
23
C0
7D
00
BF
1F
E8
14
EA
95
98
49
CE
3E
92
9C
60
9F
64
C3
44
F7
6D
28
FF
20
4C
9C
31
E4
F1
F0
4E
2F
92
9F
0C
05
19
8E
2C
D9
EE
91
FD
1C
8D
5B
C0
1F
02
4E
27
B4
81
B0
E7
95
9B
0A
F7
C5
C5
09
03
FF
AE
BF
25
EF
04
CB
00
5F
C0
A2
C3
92
0F
B3
A3
6D
AB
FF
BA
83
31
8E
D3
82
FF
A7
FA
7F
24
BE
0A
BF
06
2B
18
1D
02
20
4D
2A
DD
5B
22
F1
4E
3E
7C
53
A7
22
23
FE
01
9E
B7
56
1A
F6
21
66
E7
0F
A7
0F
08
4D
98
00
3C
73
55
6B
5B
69
FF
9C
8D
C3
8F
A8
17
A4
7F
1F
7C
29
38
FD
52
05
27
37
07
72
2A
28
FF
78
3C
98
EC
20
D5
AC
5B
D2
C0
73
1F
D0
19
AF
84
AB
F5
00
9D
B4
1C
89
B6
7D
80
2E
C8
E6
F8
CF
74
91
26
76
1B
35
E2
42
AA
7A
61
C1
36
78
2F
2F
0E
5B
BE
60
94
B0
BE
F8
20
D6
E6
30
FA
60
E1
17
94
37
23
DF
06
FB
35
45
C1
8A
E8
73
76
AA
B4
97
E2
25
FC
89
07
2E
95
A2
D8
E0
87
B6
D8
4D
F6
D7
03
97
17
39
1F
21
13
3B
1D
BB
6C
3A
17
A0
6F
CC
79
19
D0
2C
58
CD
03
D5
00
F4
77
2B
5F
5D
B7
10
FE
84
38
A2
B9
D2
C3
3C
E7
97
20
4F
DC
F4
40
5F
E8
9F
9D
98
AF
C0
A9
6E
73
AB
E5
C4
AB
B0
3E
E5
20
CB
3F
57
3C
59
02
6F
BA
AE
7B
FD
ED
81
CB
22
EB
AA
41
1F
F4
13
EC
0F
B0
0F
47
5D
45
7C
06
D4
3D
78
AA
78
D6
4C
F8
1D
4F
1E
0F
AC
EF
63
D0
22
F3
1A
03
FA
17
5A
9C
E4
DC
82
D8
FB
61
B6
0B
D5
06
97
30
ED
8A
B0
75
E6
1C
1E
F7
09
1B
12
26
B3
9C
BF
E5
03
9B
59
37
E2
F7
6D
E8
00
E0
80
C4
D7
C0
AD
E0
C1
4E
A9
F9
BB
96
38
BD
A2
B3
27
C0
87
EE
0E
7B
E0
19
79
55
51
78
40
BF
3D
08
66
15
D7
0C
6B
15
6F
18
01
BD
F9
34
31
5F
ED
E5
5D
7E
0B
91
A7
3C
B9
35
E4
FD
84
BC
84
86
98
FF
11
23
3F
A9
13
07
67
11
A9
67
C7
07
54
F5
6A
B9
5A
E6
09
F1
2B
0F
B8
17
CA
E8
D0
F0
D8
E0
2D
F4
16
0E
FF
0B
03
3A
E9
16
C2
77
F7
B8
44
56
A6
63
8C
6B
17
20
47
A6
32
39
E9
0A
30
A7
4C
05
FE
F8
0E
FD
13
05
77
C6
27
72
07
49
EF
0F
46
A3
A3
D2
5B
CA
10
D3
4F
33
E7
15
06
DF
08
FC
12
AE
D7
01
E6
02
70
3F
DF
00
AC
FD
D0
19
4F
53
BB
6E
18
D4
A7
A3
C8
51
64
32
2F
70
6F
92
48
78
27
2F
DF
2D
06
09
8A
3F
7A
34
C8
D8
EC
CC
5E
FF
35
12
C7
33
E1
1F
99
6B
F1
C0
00
FD
1D
7E
E7
E8
19
20
A0
98
16
11
BE
D7
C6
9F
65
F9
45
F4
68
E7
08
F8
7A
71
C8
BB
C1
A7
9D
91
79
5D
FF
96
56
97
3F
38
8D
FA
C6
57
B5
4F
B7
95
2D
17
0C
B5
0D
DA
FC
77
B4
2B
55
34
8D
79
69
85
B1
E4
B0
C2
BF
C4
77
A2
44
EF
82
DA
C1
AC
E5
B7
63
3C
72
21
E1
F6
12
E4
58
