25
EF
D8
D7
8C
E1
2F
D6
E9
D0
16
0E
E8
07
05
22
FE
F0
F0
CE
21
00
F2
F6
29
F9
39
F3
00
AE
13
FF
14
36
D6
05
DD
09
19
FD
0F
F5
F4
00
1A
F6
BD
ED
FB
F8
14
F1
E7
C6
A9
FA
2A
C0
27
D1
EC
C6
41
09
07
DB
1B
04
EF
03
D8
02
F7
FC
EC
08
2F
F0
BA
27
0E
C3
EF
11
F0
23
FF
1C
04
F7
F7
E2
0D
C6
EA
0E
D1
11
18
FF
05
27
D6
35
18
44
11
C6
27
C9
F7
E3
0D
11
F8
1C
FA
0F
F5
3C
FF
55
DD
22
0A
EA
F9
01
07
21
0A
C3
0C
24
CE
56
2E
DF
2D
60
21
28
29
D6
35
1F
08
37
26
03
0C
EB
3B
F3
D6
5C
D4
2E
22
01
F0
A9
FB
3C
E4
F5
39
0C
2E
F7
37
3F
06
22
28
D1
0A
C6
F7
1C
0A
FA
23
2A
01
05
BA
3C
F3
30
EE
0C
F0
EB
F7
50
E8
FB
E1
1A
14
10
F9
0C
C6
05
57
FE
00
CB
2D
01
3F
D3
FE
FB
F9
DA
04
1F
F9
01
01
F9
4C
0C
C9
0A
DC
C2
07
E2
CA
D4
04
1D
81
D9
48
33
ED
BE
73
02
17
E3
F3
49
D5
43
66
C2
26
24
39
0F
E5
ED
29
23
21
10
E7
28
F9
26
F3
F8
2F
17
A0
36
C6
EB
2C
C7
C0
EF
CA
0C
2E
FE
02
D1
E4
D2
4E
04
BF
0C
2D
0A
FA
F3
F2
FF
D7
1E
F1
E3
26
D7
F1
47
06
08
20
FF
CE
24
04
F6
F9
0B
29
EE
1B
C2
18
D0
1C
A7
0C
01
09
11
C2
E2
FA
F1
D8
06
3E
F7
F1
5E
18
18
F6
1E
19
3F
08
E4
0A
17
39
06
14
DA
23
EC
F8
F1
F9
1B
FC
AD
D6
EF
48
2B
CC
DC
E1
F2
0E
E9
1B
49
D1
F2
E2
3F
37
DC
FA
1A
02
46
0A
18
2D
32
E7
DC
39
FA
0D
AE
D5
DF
C4
DA
26
E6
3C
DB
07
5A
C4
19
1B
F6
63
2E
39
E0
3A
21
D7
19
16
EE
55
FE
BF
C2
00
D5
04
EF
C8
F1
FF
DE
E3
EC
01
04
E2
0B
E9
ED
E9
E7
F3
3C
FA
F9
25
ED
E8
E9
40
29
B9
19
EC
0B
F7
C5
F8
CF
E2
EC
DD
1D
1E
40
1A
43
2B
ED
EC
31
20
26
08
07
F4
11
FD
FF
FC
07
21
E4
22
CC
17
10
EB
1D
07
14
70
F5
3D
1E
EF
00
F2
15
0D
08
FF
2B
34
1C
23
D0
21
1C
CD
16
F8
EB
E4
F2
33
C2
17
39
1E
09
E2
09
F0
0F
03
FC
05
CA
2F
DB
EB
FE
F2
E8
E2
AB
00
F8
D1
0E
4A
C8
CC
FC
FC
06
06
E5
01
ED
2B
00
29
17
20
04
11
2F
E6
94
F0
0E
52
E3
1C
25
07
FF
F6
13
C0
D6
09
03
02
12
21
05
E5
38
10
C2
B5
F5
05
C8
1C
1E
FD
DA
10
C3
F4
0E
52
F5
EB
FA
51
0C
EE
29
FD
2A
C6
F8
19
2D
FE
D7
E5
20
21
10
28
0E
DE
E4
D8
ED
D9
DA
F6
16
C6
FA
35
31
EC
15
02
F2
31
D4
10
12
05
E5
2B
0E
FD
10
42
47
0A
27
19
DA
EC
2B
2A
D6
83
A1
1B
E1
12
CD
0F
42
C3
1B
28
CF
D6
48
02
0B
EB
07
09
C6
31
F3
21
EC
1A
1C
2C
C8
E5
E3
06
F1
BC
D7
0A
D4
03
20
C4
33
06
49
17
CE
F9
2B
F2
05
F5
F1
12
DA
F7
0E
A6
C0
0E
F5
00
05
FC
16
24
F7
04
F8
A6
39
17
11
CC
12
04
12
C5
FB
E1
24
0B
14
0C
E3
BC
20
CB
0C
30
D8
D2
CE
14
F8
01
1D
C7
32
1F
42
DD
F1
16
D3
B5
E5
E5
ED
81
DA
CF
EB
FE
03
D4
0A
AC
25
B0
3C
0C
09
02
1D
F0
EC
FA
BF
0A
E2
CF
EC
02
32
FA
F8
16
09
0E
D0
DE
00
51
E6
F7
DA
60
01
D0
1D
0A
47
C1
AF
1F
00
E0
C9
12
D3
2B
FF
C4
00
FC
24
13
24
00
ED
07
FC
F2
DE
E8
96
FC
F5
03
23
F0
0A
DD
12
07
E1
07
E2
D1
DB
07
F9
F0
1C
F0
E3
F9
0B
D4
2B
EA
E4
06
DB
08
00
17
EC
0E
FC
DE
FC
F1
FB
21
09
E6
02
1E
2D
1F
06
FF
10
BC
CF
E7
EB
DE
EB
0D
1E
C6
0F
D6
CC
01
0E
01
B0
E1
13
15
EB
26
01
0F
DB
C7
E2
15
0D
BB
2F
4B
35
04
36
28
03
4E
0E
00
07
B7
0A
1A
E3
BE
EA
E7
DB
E5
FD
CD
F1
FB
E3
06
2B
0F
CC
27
11
C5
3D
3E
12
FE
2F
26
ED
38
FE
28
D1
22
EB
EA
F3
ED
0F
0D
E0
DA
1D
1E
13
F4
F4
F8
E3
18
10
3A
EC
DB
F9
F0
ED
F0
EB
E7
F7
00
18
02
D0
0D
F0
24
E8
16
0C
15
1F
2A
05
31
BF
DE
0E
0E
07
45
D0
26
FE
49
21
CC
E2
F1
2B
F6
C1
13
01
F3
D6
FE
F4
22
1D
14
F1
19
1A
18
D5
44
F2
2D
FD
44
04
04
E8
C5
1D
A0
2C
12
E5
2B
BA
22
C3
29
F8
E4
1B
0F
1B
37
3A
38
FE
C0
EA
ED
2E
A8
CF
ED
39
E4
05
C5
CE
FE
13
EF
FE
FF
11
D1
EB
12
F1
2A
1F
16
22
2E
09
F5
05
17
F1
20
16
DD
EB
FC
CA
25
1C
09
F5
25
05
BE
2E
FB
15
F1
C2
E1
23
12
D7
EB
EE
08
19
E9
0D
2A
E7
0A
E2
12
EE
03
E7
01
24
E6
0C
1A
F6
EF
C4
24
EE
EA
00
02
C9
F2
F9
21
13
15
E1
F5
0A
EE
19
E8
19
E5
CE
FE
02
50
36
05
08
D8
11
F8
18
D0
09
DE
FD
C9
06
1A
C6
20
32
F8
0A
10
07
C5
28
EA
FB
E0
B7
F2
0D
42
26
EB
0A
8A
24
2D
FB
D8
EB
EA
DE
F5
E4
03
F1
DD
06
F4
05
18
F8
E7
2E
D5
FC
6E
E4
23
FE
6E
1C
56
29
29
38
A2
06
06
D4
0B
FF
E2
40
FD
FA
E1
F2
F9
23
12
02
0C
D3
C1
FC
EE
C4
6E
12
01
19
55
24
02
ED
F5
28
A1
34
06
D7
EE
13
EA
0B
22
04
E6
B6
E8
FB
DA
C9
E3
DF
EF
40
D7
33
03
34
E4
F4
0D
26
0E
32
FA
06
D8
F8
25
E8
2D
41
0C
FE
43
20
DF
1E
ED
2B
0E
CC
C3
27
09
F9
0A
4C
CE
3A
1D
FD
26
CD
E5
E5
05
ED
F0
08
24
02
30
99
28
EB
37
FA
1E
F6
CB
F3
E6
F2
D7
4E
F4
D1
23
D1
CD
F1
CD
25
F9
EB
06
2D
1B
2A
2C
09
E1
E4
0A
C8
B1
5D
D1
B3
1B
DE
F8
29
E8
DC
2B
29
B9
00
EB
ED
F6
FE
BA
50
EC
23
18
14
E7
D1
15
F3
DF
3D
EC
02
CD
EC
0E
D9
E1
1A
E5
F8
E1
F3
21
3A
DD
DE
15
23
06
0D
D7
10
D7
28
B6
DF
EA
ED
FE
19
10
07
F5
F9
E5
F4
1A
1B
FF
09
E1
F1
54
BE
B3
F3
29
B3
04
C0
0D
0D
EC
11
03
F7
5B
11
E1
C2
0B
F3
36
F4
D0
AE
F4
48
03
3D
0E
DD
18
09
2B
E1
FB
F3
1F
EA
20
CB
1A
D6
0A
0A
15
DA
2E
F8
F4
09
F2
03
F7
DF
E0
FE
2A
F0
09
EF
06
F2
09
CA
01
01
F7
2B
42
03
15
E0
CD
FB
D8
35
DC
14
06
FE
EA
B4
F3
0B
D0
F3
C9
F8
02
0A
E4
2D
44
03
39
CA
7F
FB
02
0F
43
FE
D8
C3
DB
09
1E
0E
1F
1B
09
4C
1C
E9
0E
22
F3
E1
2A
02
E8
1F
C8
0C
F0
06
54
05
EF
0D
E2
06
03
F0
12
EA
D4
03
25
FD
13
D1
E1
17
E9
18
09
F7
0A
13
CE
17
1D
F8
FF
CE
F8
E6
FC
08
02
E1
E2
17
FC
D1
1D
E1
6F
11
E6
15
FD
D7
E4
1A
2B
12
D9
F4
0F
F8
F6
1B
2C
14
D5
D9
CD
F7
07
D4
FC
F4
DE
EB
01
0B
EE
E4
22
FB
ED
F2
FC
F1
EA
E0
46
10
0E
D4
0E
FC
DE
E8
F8
0E
46
02
F1
0F
E9
BE
D3
01
C3
D4
FB
19
DD
FD
36
0D
E6
F4
2A
D8
F3
FF
29
0C
FE
C9
19
F9
2D
DE
2B
18
35
2C
EA
18
EC
EA
0F
32
09
0E
CE
E0
1A
CB
02
14
D1
F2
2E
C0
10
1D
06
17
D1
1A
45
CD
0F
08
0D
08
2B
50
F1
CC
17
EF
F2
01
CB
F3
E7
08
E4
01
3A
33
09
56
7F
E8
25
E9
0A
2C
EA
F6
24
EF
0D
28
1E
20
27
7A
E8
EE
F4
2E
08
DC
18
EC
F6
09
0D
E1
E4
FD
DD
27
EE
1A
12
1D
1A
F4
06
02
E5
F1
01
00
19
E1
C7
1A
0F
FE
F8
20
0C
20
52
2E
FE
18
3B
3E
BE
04
CA
22
B4
F0
F8
18
06
0D
1D
F8
CF
3B
C2
F4
24
0C
26
22
F3
12
FA
FF
FB
E6
EE
BF
03
0B
1A
32
2E
0C
2C
01
E2
DF
F6
00
23
EE
D3
1D
D7
0D
F8
0B
E0
0C
F3
EF
F5
18
E8
14
E6
0C
03
26
0E
19
05
10
F6
DC
0F
EE
F6
20
1E
0C
E7
29
F6
0C
DC
21
E5
F8
0D
1A
00
10
BD
18
EB
44
28
3F
10
18
1C
3A
01
42
F2
DF
F3
E7
1B
E4
D1
E2
F4
05
3A
0E
05
EA
18
52
3B
D4
05
F7
08
EA
E6
3C
4C
18
D2
E3
2D
FC
E4
7F
14
2A
DE
F2
0E
04
10
DB
DE
4A
14
EE
34
06
1F
E5
FB
B8
F4
3B
38
01
E9
3F
30
CE
EE
DB
24
D1
D0
01
E6
B1
24
E7
F9
F5
12
BF
CC
0A
25
F5
43
15
C1
E4
C4
0B
19
0A
27
02
EC
F3
EE
1A
1A
FB
48
FE
16
FA
04
C3
DF
DE
E8
FA
FC
C0
09
DA
11
0B
EA
17
1C
19
F5
0D
02
EA
41
F4
05
EC
CF
DB
0A
E8
01
F4
F6
14
F2
EC
0A
FC
07
18
02
2E
D9
D3
E8
1E
F8
1A
35
D8
1D
F5
26
D5
33
23
18
D5
EE
04
1C
30
18
03
15
0D
00
0D
18
FE
0C
22
32
20
D9
CF
09
EC
EA
F1
37
FE
FA
22
0A
36
52
F5
28
1E
DD
F3
EC
03
FA
A3
1F
F6
F5
DF
C5
07
F2
AC
12
0A
07
15
67
E9
D8
FB
FE
F7
45
FF
2E
FB
36
26
01
26
00
10
08
26
DE
A5
F5
DC
6A
F4
05
2E
D9
16
CA
3E
EF
0A
FA
F0
CB
F9
F1
0B
E5
11
26
00
E3
E1
03
E6
16
FF
28
F4
09
D1
15
15
35
29
07
F5
4D
DF
F3
26
10
F4
02
C6
29
0D
CE
17
F3
0B
2F
0D
08
BD
CA
E0
F8
F5
DB
CC
36
23
99
2A
3C
12
24
D7
24
05
F8
AA
E4
FE
19
AF
53
D8
31
C4
46
30
D4
07
FD
D8
0F
18
5E
EC
9D
EE
11
9C
0B
FB
F9
2B
9A
F6
25
04
C8
33
EF
04
13
02
F5
BB
21
E8
5C
30
D5
29
3A
D3
D2
D2
00
35
BC
AE
0E
F9
E4
37
E3
5C
F1
FC
30
CC
05
10
D7
EC
0A
D8
32
AD
05
FF
BA
DE
11
0E
19
15
0C
04
28
EA
EC
F8
0A
26
FD
37
E6
22
F7
18
B4
C5
FD
2B
1A
FC
2B
E0
C1
2B
FE
F2
B4
AD
A5
C3
68
04
FC
31
F5
3C
52
48
C0
1D
51
F7
FD
EE
06
20
81
06
CD
2A
27
F3
E5
01
C2
56
A9
06
0A
D3
35
0C
D4
08
EC
8D
01
EF
F4
E5
DB
1D
EB
C0
24
BC
61
FE
EA
01
35
E1
F1
E8
55
F1
EB
3B
E9
5D
C2
EB
47
F5
A9
E8
E8
EC
25
DF
C6
2E
F4
45
E1
19
E7
C5
F3
F2
0D
16
E9
F8
E6
00
07
04
D6
4E
14
1C
22
CA
FD
C5
CF
2A
05
C3
C8
F3
FD
2D
E0
F8
E1
3D
20
01
E7
CE
E8
F4
D3
A8
E0
1D
E2
F8
EE
FA
03
40
DA
ED
2B
28
3D
07
15
1A
E4
FA
BF
C5
E0
DC
1B
5F
F0
F4
F1
CB
05
D5
0F
BB
F5
1F
29
E8
53
F4
15
CD
8C
DE
07
66
A1
2C
57
58
3E
33
FF
E9
4B
2F
C7
F3
9E
D1
22
CF
C0
0D
E4
8C
CD
36
B1
1E
19
F4
B7
54
F0
FF
12
0C
D0
07
23
16
05
28
11
E3
59
F2
E2
05
37
1C
E0
E0
12
1E
F1
DF
0E
0E
F7
F6
1B
12
0F
02
50
27
1E
D3
D5
01
31
EB
D4
DA
39
F4
13
EF
23
C7
01
04
14
E1
D3
F5
4B
F7
E7
37
FE
EA
F1
23
20
26
05
26
28
18
FF
EE
F5
FB
98
1B
1A
CC
19
BC
05
EE
27
04
F9
F8
26
D6
18
2C
F2
A5
57
07
0B
C6
48
10
E0
EE
11
0A
14
B5
1A
05
E4
1C
C0
D3
FB
EF
DA
05
FC
09
C4
FF
DE
D9
21
D5
72
19
1D
F0
F4
F1
38
0A
0C
C0
05
3D
55
E1
F1
1E
0A
21
E8
17
E0
E8
CF
02
F9
E2
2C
41
EE
18
07
F2
71
E6
33
09
D0
E3
E6
E3
AF
DE
10
FF
09
0C
2B
24
2C
18
12
02
F4
DC
20
00
32
EC
FF
0D
F3
09
D9
38
E7
EE
09
12
1A
11
FF
E6
03
20
11
F0
FC
FF
FC
D2
37
13
10
CF
02
E9
D9
E4
2C
F6
F8
E3
18
26
B9
C9
C4
D2
EE
FB
22
0A
F2
29
03
4F
FB
03
02
3D
FE
1A
2C
D3
F1
0C
07
F4
38
40
DB
39
81
14
04
07
F2
CD
DF
FD
18
E9
E7
BF
12
0C
2C
3F
1A
F9
1F
1A
19
DC
E8
E6
CB
CE
19
CE
F8
0C
E6
09
AD
FE
2A
DA
F8
EF
0E
AA
ED
FC
0D
B3
F4
FD
B5
DD
FD
16
03
11
E3
04
EE
08
DD
CD
05
07
04
4C
CC
03
0D
12
02
CE
E9
2E
1D
F4
F9
E7
F9
19
17
CA
37
E8
08
1C
33
00
10
17
07
27
47
0C
D4
D1
5B
2A
B6
0B
0F
1A
A0
E4
EB
0E
0F
FB
11
F1
B5
46
E3
FD
DC
BC
11
39
FA
0C
04
05
1F
0A
16
E9
0D
17
F1
B4
1F
A3
53
D7
F1
11
FA
FC
CE
C3
FF
0F
E6
42
DE
3A
38
ED
1A
03
FE
17
F7
DA
EE
FB
0E
EA
0B
1E
FB
C2
EC
E2
F5
D3
02
01
12
C2
E4
0A
CA
00
14
F0
E3
1E
0F
FB
2F
00
02
D4
10
F1
1B
EF
E5
CE
FF
00
FE
35
1A
E2
FC
E6
07
EB
F4
C0
F4
F4
1D
00
17
F4
D3
10
D8
E7
16
2A
22
E2
0D
13
07
02
E7
D3
E7
08
E1
3A
D7
E8
01
CD
01
DB
24
B5
EB
EC
1A
CB
3C
F9
F8
0F
1F
E9
FE
50
D5
05
17
4A
03
4B
D8
06
C1
11
E9
F6
D0
E3
01
12
B3
28
18
DF
B6
11
8F
E0
10
0D
DC
F1
F5
07
0B
10
F4
08
02
16
4F
07
FA
EE
22
02
D5
F7
34
2D
F9
DF
E1
1B
0F
02
BF
24
F4
ED
D0
0F
DE
BF
FE
07
18
10
F0
2F
1E
40
F2
00
2B
E2
1E
00
18
0E
16
27
10
F6
C6
FB
45
FA
CD
52
F5
FE
DB
F0
06
0F
1A
F4
FA
F3
0B
E3
E4
F9
C7
21
E2
D5
22
E8
F0
EE
25
FA
F9
29
0B
ED
02
1E
EE
C2
F6
C5
D8
FA
02
15
D2
17
E3
04
38
D2
57
10
BD
0C
EC
D9
E2
BE
FD
F8
F8
DB
DD
F6
F7
C8
27
ED
52
3B
4F
F7
ED
02
00
FA
CA
A0
2A
32
44
1E
D7
10
FF
1C
26
35
E2
AB
E7
04
3E
FB
23
22
D3
EE
D4
27
31
C9
31
21
B4
EA
06
DE
DD
FB
39
15
F9
FE
FC
28
0F
16
2E
2E
23
AC
3E
33
46
00
1E
FF
24
D8
E5
09
DF
CE
FF
EB
F2
1F
E0
31
3F
3B
20
03
02
F7
C1
BC
1C
DD
E5
A8
21
2F
9E
0C
22
32
1E
E8
F7
EF
F8
AB
D3
05
0A
D1
17
09
F5
0D
16
29
FE
FB
1E
27
2B
05
28
EB
A7
EE
0D
CE
45
13
D0
76
9D
09
EE
EF
14
1E
15
C5
2C
C0
28
D6
FB
17
0B
36
ED
EB
0E
18
FB
BC
EE
0A
B0
94
0E
E6
0F
32
D9
21
C5
EA
54
D4
F8
2B
13
D5
F0
F9
FF
CC
08
DD
BD
CD
F3
2F
24
FE
15
FE
0F
0B
12
FF
FF
FB
06
12
E1
2F
0D
3B
22
BD
F3
3A
EC
E5
EE
CE
05
18
EB
22
38
8E
E6
FB
40
0A
FE
39
FB
3D
1D
3F
E8
09
3F
04
C5
D1
3D
15
93
E5
FD
0E
14
C2
DF
E3
BA
58
C7
09
FB
AB
25
1A
A7
DD
F8
E1
03
F4
2A
F1
C9
41
00
9C
2F
EE
5D
FC
D0
01
2B
15
F4
C1
32
20
BE
52
D2
3A
38
DA
02
F7
AA
D6
EB
E1
36
F2
00
0F
F7
37
ED
02
FA
C6
09
16
FB
FA
00
B5
F4
FD
F0
E8
DC
2E
D5
19
2A
E7
13
15
F6
F4
06
F8
13
03
D1
E7
1B
01
CD
1D
17
D3
CE
E9
D0
24
E5
B5
FC
BE
F9
12
06
E3
1D
2D
CD
E6
10
05
0D
0B
05
12
F8
FA
D4
C1
02
04
00
54
BC
10
0B
CC
08
00
2E
C0
E0
23
18
BE
0C
F4
F9
C9
0F
DA
0E
6E
DD
00
46
43
2A
56
07
E0
18
09
EA
1C
E0
FE
FA
E6
CD
EE
12
CD
B4
36
A4
F6
31
E5
E4
4D
26
ED
0B
39
81
2B
FC
2D
37
0C
29
F7
22
FE
F4
02
7E
2B
F6
02
E6
31
14
09
DF
33
02
F7
12
0E
B8
11
F6
26
3C
EE
E7
03
39
02
FA
FE
0A
22
2F
D8
03
E4
1C
18
2E
E6
E0
24
39
E6
EA
23
40
F4
0F
18
DB
0B
25
FB
05
E5
D5
BE
C6
E9
AE
08
09
AD
FD
C9
ED
FA
20
FC
F5
C0
31
DA
2D
20
C6
C9
2A
E6
01
E9
1B
08
20
1E
ED
FF
07
BA
9C
F3
16
4D
CE
EB
15
FD
F4
FA
C8
2A
E7
F9
D5
1F
2E
16
36
E8
52
E0
FD
D4
1C
EC
FB
F5
FF
45
07
42
93
0E
32
31
01
E3
C7
41
EB
19
01
ED
1C
D9
16
0E
07
CF
06
EC
45
32
E8
12
20
C6
3D
16
53
27
08
F0
11
11
1A
29
1A
C2
1F
2A
00
BB
D4
E5
E5
F5
FF
3A
F7
29
D7
D6
E4
F7
06
27
F5
09
E7
C7
E3
EC
2D
3F
18
F3
1F
04
21
32
E9
BA
11
EA
1B
0B
E4
EC
D1
2B
EA
35
DB
1B
F2
47
14
DF
22
D4
D7
15
DE
A8
12
D8
DA
12
BC
D3
04
04
47
F3
06
00
E8
38
0C
25
05
2F
F8
D3
11
C8
79
07
CF
0A
04
E8
2A
DA
35
A9
DB
3C
D7
ED
D0
EB
E0
14
18
C5
71
55
AD
33
0A
F0
E2
27
FF
EC
41
A6
4E
D9
D7
43
FB
28
22
05
40
A6
24
18
09
E6
CC
45
E9
00
DF
C3
2D
3F
A8
28
E7
F9
E2
ED
05
F7
F0
E8
DA
C5
22
49
FB
32
BF
07
18
EF
1B
1D
E3
26
97
34
E7
EB
D9
2B
D8
F8
28
DF
3A
F8
0F
ED
DD
CE
29
09
DB
E9
EC
28
E6
FC
F8
FB
96
F5
05
23
41
AE
13
3F
01
24
12
2A
16
81
EF
B6
52
D1
CD
14
EF
E6
EE
D3
DA
3A
F3
22
9D
52
63
0A
A9
ED
43
F4
42
AF
C8
12
33
F7
12
0F
0D
F1
17
00
58
C5
62
ED
E8
E0
19
0D
EB
EC
D7
3B
B4
01
0B
E8
D0
D6
0B
33
0E
C1
13
F2
B1
F7
ED
E1
C7
EA
FC
DC
3B
3C
31
05
32
1F
1C
4C
D2
3C
E1
35
0D
09
12
13
35
21
11
0E
DE
00
AF
CD
21
AE
E5
DD
D5
AE
0E
DA
E4
0A
D9
C6
33
EA
0F
05
CB
18
DE
E4
E0
0D
17
1E
CE
ED
FD
D0
FE
FC
EB
D4
DA
0C
99
3B
14
F2
05
38
D5
FD
DD
EC
DE
CD
0D
F9
D9
FF
C3
E7
59
EA
11
FC
C2
EA
FA
12
CF
10
0D
0C
CF
0A
97
08
EA
FE
D0
46
26
EA
1D
D4
E5
42
EB
F2
22
22
01
FE
10
0B
40
FC
C2
02
29
E7
14
EF
3B
07
F1
2D
FA
11
17
0B
CE
52
41
B5
F5
EA
18
2D
C8
1B
CD
0B
E2
D1
F8
3B
F0
DC
11
EC
23
0A
E9
12
15
0F
F1
DE
43
1E
FB
C5
F8
EF
38
3A
2B
05
03
20
F2
1C
E3
02
30
59
02
19
36
C4
BE
F0
C8
47
13
1A
20
E0
32
07
1B
F2
0F
DF
CA
0F
12
24
53
08
D7
0C
D4
14
B4
F3
F7
2A
0B
08
E3
DA
C5
E8
CA
33
E4
01
EF
D4
EB
05
0E
0D
12
EA
29
0F
E8
F4
0C
F5
08
F5
3C
01
E4
2D
FE
00
F0
FF
3C
DC
13
C9
F0
26
08
F0
A9
FC
F6
28
F2
10
F8
EA
0B
15
01
D7
E7
D5
0A
FA
4F
0E
EE
F0
E7
0B
FD
C3
C2
AD
44
E2
E1
17
0A
AD
CF
14
EB
26
E4
E6
EF
BE
08
14
2F
EC
FA
D8
0F
EF
53
FE
E6
E7
05
12
1E
11
D0
BF
53
EF
0A
10
FB
CF
1A
45
11
19
D9
EF
04
E7
FA
E0
FE
EA
3E
D0
3B
07
0B
01
B0
24
36
F3
29
00
18
29
24
5A
1F
E0
D0
38
26
DA
ED
14
D8
24
C6
D8
66
ED
00
38
6C
E4
40
1F
EB
FB
BB
13
00
E4
16
F3
00
3C
3B
7F
0D
03
F6
28
20
0E
3A
EA
0F
30
D8
B8
4A
10
E7
F4
14
14
19
09
F9
0D
EE
FF
03
C4
30
08
CC
08
E1
21
3F
D6
29
46
F5
D8
FD
E7
EC
2E
F5
5E
EC
2A
13
20
F2
31
03
13
F8
14
02
02
F3
2B
FB
14
FE
34
36
25
E4
F8
E0
E4
1E
BB
F2
D9
FD
DD
CC
0E
0C
12
FA
C5
26
00
0B
FA
31
ED
E1
F2
ED
DD
02
B1
FD
1D
F7
DF
00
09
E4
25
F1
17
2C
44
FC
F9
FA
D4
FC
CB
01
E2
F0
0A
0F
1B
F8
34
29
FF
D8
2A
C4
E0
FA
19
EB
0B
AB
F3
06
40
15
2C
45
19
ED
0E
16
F1
2E
CD
DC
23
16
1A
09
B6
EC
07
27
23
01
14
0A
FD
E1
E7
13
F4
D3
05
EE
30
30
02
E1
12
40
FA
06
24
1C
10
A8
ED
FA
2E
FD
E2
D7
12
40
05
18
07
0D
E9
36
F6
0E
2D
54
3A
F7
0D
4D
ED
F3
0E
0F
B7
EA
D3
F2
F7
07
25
ED
C5
3B
09
15
D8
03
ED
FB
DB
EC
FA
D0
25
EA
40
4E
ED
04
F7
0C
FA
F4
F4
11
E3
EC
F3
D4
03
0A
F8
E0
FB
13
DF
CF
E1
D1
FA
BF
20
06
04
FE
03
11
E3
43
25
E1
D3
F2
E4
17
14
23
15
B5
F2
D5
34
21
24
E0
05
FB
EB
EB
D8
D6
F0
F9
33
E9
02
FE
E3
EB
F2
50
1A
19
AC
42
15
FE
22
28
20
C2
B0
E2
F1
40
F8
F9
FF
1E
00
D5
EB
E2
E1
DE
F1
EF
FD
FD
22
C3
26
AE
F7
E9
DB
FF
DA
2A
DF
22
14
08
F3
F1
0E
38
25
37
CA
E9
F6
C0
0D
E5
D8
04
21
D4
28
0E
F2
DC
10
FD
16
D7
DD
FE
04
FA
DF
13
F8
03
05
FF
0B
F0
F6
F1
E3
2A
19
E9
FF
24
F9
E6
F1
FA
06
D6
FC
CA
16
CD
02
FE
CF
DC
10
EB
EA
1B
ED
E7
12
03
E9
07
FF
0C
E3
10
F1
FE
26
26
ED
C7
00
06
F1
FB
14
18
09
C9
F4
F1
E1
14
29
FD
E8
1B
D5
29
FB
D7
E8
11
EE
04
B5
0E
0D
40
1A
0A
FB
E3
01
EC
0E
E3
ED
03
08
B0
19
27
12
F4
1C
0A
EC
BC
0E
ED
F8
07
14
F6
F3
FA
24
30
1B
D7
06
81
FE
1D
E7
F9
EA
FB
F2
EE
EB
F5
07
0F
23
16
0A
16
DD
F0
13
CA
DF
4F
FC
09
D2
5B
0B
1E
E7
FC
17
B1
15
11
B5
FE
1E
C0
28
10
31
E1
F2
E7
14
F9
06
F4
FC
08
F8
F6
B0
67
F1
E4
F0
40
07
2E
05
12
0A
D4
3D
28
DD
23
17
02
05
27
0A
BA
98
F2
DD
DE
F3
C3
0D
00
F5
C1
F0
EE
3C
D8
1F
13
26
DB
2D
F1
1F
14
EE
40
E4
1C
1C
03
CA
5C
37
E7
E0
02
12
FD
BA
CA
0C
C5
EC
01
6F
0C
16
19
D9
15
BF
26
EC
39
0B
03
D3
15
14
1E
E1
F6
ED
20
C7
00
05
D6
17
D8
E7
EE
31
D9
EC
FB
0B
EF
F9
E3
3F
D9
17
11
05
FC
1A
1C
0E
08
E5
0B
CD
E2
4D
FC
BE
F1
DF
05
F0
BA
FD
0C
20
B8
F8
32
EA
FE
03
15
24
CD
FB
12
D6
D6
D5
13
24
05
FD
FD
F5
13
08
02
09
BD
1A
26
F1
0B
23
FE
44
15
F6
1A
29
F1
F0
D5
41
EA
26
02
F4
E5
0E
26
29
0D
18
CA
12
E3
00
20
0A
3C
22
0D
E7
36
E8
DF
F5
26
B5
0A
BB
F0
EC
05
10
2C
DA
3B
E8
00
CF
F9
FF
24
00
DD
C2
F1
2C
F0
0F
28
0A
ED
E0
15
DE
F5
F4
4B
08
11
E1
16
CF
1A
EF
DF
ED
3C
F5
02
14
EC
22
E9
09
0C
01
E3
F3
14
ED
32
38
FA
B9
26
16
03
16
43
1E
FC
FE
F7
F3
F5
25
E7
29
DD
E2
07
D2
04
F6
17
02
02
F0
1D
1B
F7
3C
12
FD
0A
E7
32
F0
E5
01
3A
29
E3
D6
2E
0B
24
1B
00
16
EE
20
EF
E8
0A
F2
0E
F0
0E
10
F3
1B
E0
E3
CB
FA
FB
EF
22
C2
06
CE
1B
F8
DE
31
FE
FF
27
32
22
FC
F8
FD
0E
F7
E3
04
26
18
F9
06
BD
EE
04
E4
F9
F3
F6
F1
E8
E2
11
E7
20
0B
F9
28
C7
E3
F3
D1
DE
0E
1B
14
F9
1B
FC
FC
23
03
F4
09
54
E5
FE
EE
F9
26
FA
F4
EA
F1
01
16
FA
29
06
19
CB
F5
EF
E1
BC
E9
17
F5
05
16
F1
0A
EA
E0
0D
03
D9
F1
02
EE
D2
FB
1D
E4
FF
FC
FF
1A
29
D2
0C
DD
DC
F6
00
F7
F9
22
18
19
2B
FC
E9
0E
EF
09
DF
00
E2
D0
FE
22
F3
F6
E6
E7
04
3F
42
1B
07
21
0D
21
11
ED
F9
EB
03
10
42
01
FD
05
ED
0C
0B
35
16
12
DE
F0
F0
00
EC
1D
22
0A
17
0C
2B
2E
0B
11
EE
B6
2E
C8
13
DA
04
FE
27
DB
1A
3F
ED
09
E2
FD
F3
E0
1E
18
F8
02
FB
36
03
20
18
01
FD
FC
F7
F8
21
C9
7F
F2
F0
E6
07
1F
18
EC
EE
10
03
01
0C
EA
0F
F6
F4
3D
1C
09
D9
EF
F0
E5
08
F0
E1
F3
1A
F3
D9
C3
10
1A
08
E8
39
15
F1
11
F6
2D
FF
0C
2B
CA
0C
04
FA
25
03
14
0D
0B
01
22
E2
1E
16
15
BF
D6
FC
39
D5
1F
0F
E2
01
F6
FF
1A
04
21
CD
E5
07
E9
F5
C9
02
22
08
D8
FE
FB
0D
0D
F6
26
06
0B
D8
E7
08
CA
E8
0F
16
05
1A
20
1C
24
0D
03
F2
F3
FA
E0
02
F8
0C
0D
06
0E
ED
D1
E7
08
F8
08
DD
12
E1
DF
1E
D0
0A
02
F6
09
EC
FC
0E
36
16
FB
22
F1
02
09
F1
D9
FC
F5
E7
13
02
1C
11
FD
08
07
16
34
DD
D7
F5
EC
1A
03
EF
41
E8
1A
F6
1D
10
00
FB
22
F2
2C
FE
15
46
26
0B
03
26
12
07
03
17
AB
F2
F4
FB
DD
FB
F6
10
2C
0A
16
1A
FA
44
09
09
F6
FE
08
02
DD
F2
D0
23
36
FB
2E
14
D8
EB
04
D6
EA
FD
0B
F7
D0
14
16
F9
0C
F7
06
CC
FB
25
F7
F5
03
C5
FD
0A
E4
13
14
FD
F8
09
EB
15
E2
E8
DB
FA
03
E3
16
2F
FC
FC
04
EB
DE
10
1F
F1
1E
F6
EB
ED
F2
F8
05
E1
01
05
F6
39
1F
F0
09
30
15
0A
D2
37
EA
E6
37
2E
0D
01
F8
13
33
0A
19
22
1D
E8
FF
F2
1D
06
FF
F5
1F
F6
06
4B
22
19
98
49
E4
FE
39
39
4F
3F
3B
9C
D4
9C
DE
9A
D0
F2
15
DA
85
0A
4E
0A
F9
AA
F8
53
8B
9D
30
57
C7
2C
38
3F
A2
54
E5
04
E2
36
EA
BC
AB
11
D0
B9
AE
B0
41
FA
63
63
95
30
89
CC
D1
3A
5A
BA
E4
3C
F6
EF
A2
6D
23
3C
81
3B
F6
31
BD
F0
FC
07
E8
A0
FA
01
F3
E9
8D
00
FF
FF
B7
23
41
EC
8A
FE
2B
C2
0B
27
F0
EA
96
57
E7
5D
EE
1E
50
B9
C2
1E
DA
9A
07
F8
A1
C1
1F
C0
CF
ED
59
B5
21
90
09
A0
ED
62
9E
4C
38
30
37
E8
E3
4D
D3
0D
70
BC
91
88
4C
84
17
FC
86
CD
99
C3
4E
49
D4
F9
D8
B0
44
41
95
26
C9
F5
EB
1E
00
47
83
95
E3
47
F6
8D
43
EE
E5
D4
57
AC
89
DC
32
D8
5D
B8
A0
C7
0A
C0
9A
3B
FA
64
DA
52
1A
15
29
0D
EF
90
27
D9
DE
17
C4
BB
D0
E2
D4
61
CC
02
E3
2D
28
23
30
D8
26
2B
E9
92
BC
99
0D
1E
26
49
16
AC
F3
E4
DE
10
AF
28
5C
FF
03
55
85
95
A2
F7
B0
95
3F
03
2E
4B
B5
8C
DC
E7
0F
54
61
46
03
61
36
01
D8
40
8E
97
31
0E
17
2C
EA
23
26
07
8E
0E
FD
17
51
90
3A
FE
85
2C
EE
E8
3C
21
CE
90
C2
C3
47
86
32
F9
8B
22
D5
30
26
F6
46
9B
4A
CC
31
CA
AC
32
D1
11
54
A8
00
0B
94
F7
00
C0
53
89
3F
DF
49
53
48
93
C8
18
0A
3D
35
1B
37
99
11
94
B7
D9
B5
48
D1
AA
DE
E4
BF
15
05
B4
3C
DA
AD
42
BF
9B
99
9F
51
FA
47
E7
39
D9
8E
01
43
87
38
0A
1F
E5
31
DD
19
2A
A5
1B
B0
42
50
4C
46
71
E7
37
B5
40
37
C0
02
BF
BE
50
2E
2B
22
90
DD
8E
5E
50
8C
C9
AB
04
B9
33
DB
E1
F5
2B
23
16
1E
53
A7
BE
D4
B9
9F
FD
F4
21
DD
F1
F0
BE
21
38
2A
96
81
1C
B6
1C
DD
A6
AC
03
BC
B4
BB
0A
E0
B0
38
B4
04
91
11
FE
C3
EB
9E
01
95
DB
68
EB
B4
B8
03
8F
C0
E2
DD
E9
A8
D2
F6
92
A8
32
EF
59
4E
0F
CB
A2
1F
49
24
08
AB
D3
08
10
8B
53
A6
17
1B
ED
1E
3A
BD
97
10
B8
2A
97
91
D5
0A
3F
01
BB
29
82
1C
F6
60
D9
0E
16
C7
AC
D3
B8
50
B0
FB
E8
33
09
18
DC
1B
BB
F1
D7
1D
42
0F
44
15
25
0D
2E
CE
25
F5
4B
8E
0D
1E
0C
0B
E0
03
23
02
06
B7
F0
36
B2
28
D2
04
D7
26
E7
14
19
17
1F
FF
44
3D
BC
2C
FF
E0
E4
08
38
2B
2D
FC
FD
3A
2D
1D
09
E7
27
14
1E
CB
F7
1D
F4
FA
11
1B
D8
F1
BA
D2
F5
2E
11
28
C2
08
36
2D
DF
07
16
F2
19
19
25
0A
18
08
0A
CF
00
E5
2A
E9
EC
05
09
05
E4
15
90
03
FE
26
EB
3C
1F
0D
0B
31
FA
E8
42
FD
E9
50
0B
BB
EE
CF
41
A9
CD
4E
C4
23
FA
43
F8
FF
F8
B2
EA
E2
7F
10
3E
F0
13
37
45
15
1B
D8
03
EF
D9
0B
E4
0B
C0
D1
30
FF
00
2D
CA
1A
FB
E7
B3
F3
F3
FB
0A
D5
43
CA
DF
0A
17
13
05
DE
07
04
0D
EF
FB
F5
F5
24
D7
07
0E
E5
1A
59
A5
FB
2E
FE
F5
04
D6
EA
F4
EF
13
E2
E9
2D
F9
F3
E8
0B
0E
F5
1B
3B
EE
F2
D2
1A
1F
12
15
E4
38
34
F3
C1
3C
DD
05
06
1C
FB
44
0C
DD
1B
F4
11
E9
05
0F
C4
9B
DB
C9
1C
04
B6
10
14
4C
E2
2E
20
07
84
0A
92
2F
32
F5
EE
A6
D3
0D
D1
1B
18
CF
43
C0
3E
53
D3
F9
23
37
09
1C
E8
E4
20
1C
FE
FA
1F
3E
BD
EF
24
17
D2
28
FE
B6
AC
F0
FE
DE
DA
E5
EA
02
4A
C0
EC
E0
5B
EB
29
F5
EA
0C
BD
11
01
DB
17
EB
E0
57
12
36
E1
33
07
CA
CF
10
0C
07
05
F9
0C
BC
1A
B8
2E
0D
FA
1A
DF
FD
D3
9A
EA
CA
BF
02
21
03
CD
11
E8
FB
C7
FB
DF
1A
12
02
CB
EC
D4
02
D1
3A
27
0C
0B
E6
EC
0B
D6
F7
F7
D2
5D
13
08
81
04
39
D3
05
F8
0E
15
BB
06
29
D8
BC
08
FE
06
F3
F1
24
F0
D4
C4
D7
15
E8
0B
12
0D
EE
1F
CE
22
D7
2B
29
E7
0B
E6
17
04
38
F7
EB
F8
D4
0A
17
04
DA
10
0A
12
F3
15
08
2C
77
D8
44
1E
3F
13
1B
16
BC
E8
05
01
C9
42
2E
15
FB
05
3F
38
07
00
FD
E5
FE
04
FC
13
00
E3
08
07
03
E0
0E
19
EC
0A
FF
C5
0A
D8
04
E5
05
DD
EA
26
30
04
DA
DD
02
FE
EC
EB
29
0F
DF
17
23
D4
61
ED
F7
CC
35
0B
15
BC
87
D2
3C
2D
B0
E4
EE
9E
8D
01
03
F7
30
B4
3F
A8
D6
39
B2
20
C3
E6
A4
93
FC
D6
E9
92
9B
AE
9F
EA
4A
16
C1
AC
0F
C2
F7
A9
E7
E4
4C
E9
E2
46
9C
0C
4D
FC
EF
1C
6A
D3
B4
3E
4C
0E
9F
D5
13
3B
B0
F9
11
C6
B3
1D
EA
CD
F8
18
2D
BB
94
94
01
9D
9A
CB
F4
AC
BA
38
DD
2F
50
AB
54
9E
D2
AC
F5
49
AE
9C
E3
F4
1A
A4
11
B8
48
CF
07
93
25
53
3B
1F
07
4B
2A
2C
32
25
DE
F2
E8
A2
BB
06
9D
E9
45
03
A4
06
FC
57
40
E0
A3
A6
44
20
B5
F9
91
32
BD
D3
C1
0A
34
26
FE
E5
0A
C5
C2
F1
B0
C6
29
FF
29
43
FF
D0
43
1B
B7
D5
44
0F
99
FC
8F
B6
A6
46
21
2A
B9
D3
D4
EC
9D
05
50
3F
B4
1A
11
16
2D
CD
23
B7
0C
9F
02
F7
22
3C
CC
26
D8
23
F3
A1
FF
B7
90
16
14
F5
0E
EF
C0
B4
D8
F4
04
20
11
C3
16
F8
51
DC
EC
B1
A5
C0
1E
25
27
37
44
47
05
FC
29
51
89
A0
24
32
0E
AA
3E
13
35
E7
20
39
F9
04
D3
8F
C6
B5
F2
29
58
1E
28
9A
05
91
1D
25
D2
B0
99
95
C3
17
C3
F1
53
CA
E0
12
E3
A7
17
40
93
2A
C5
26
D8
9A
EA
C9
BC
36
32
C0
FD
90
3F
20
45
0C
98
AE
12
DF
E7
9E
89
EE
52
93
F2
C8
58
9A
C5
15
DA
C5
16
C9
B8
F4
14
48
8F
11
39
1E
C4
FA
37
09
3B
54
4C
AE
01
EA
A1
DD
2F
94
44
0F
EC
99
50
F5
81
33
93
15
AC
DE
36
B9
EF
57
2E
21
37
9B
C5
9C
EB
37
B4
E8
EF
C5
21
A7
12
95
DC
42
31
92
03
1B
A1
B9
9E
DC
A1
EC
E2
02
1A
42
E4
98
13
3C
1D
07
92
01
48
13
ED
D1
F3
10
10
AB
25
96
20
F1
D4
13
00
BB
E4
06
1B
AA
8F
EE
87
C9
CE
19
3E
59
3C
CC
ED
42
99
5C
9D
F6
16
E2
43
52
FC
EC
13
11
C0
A2
95
F1
05
09
1E
40
2F
28
42
04
41
37
11
9E
3C
F6
49
E3
4C
3D
06
99
96
47
D9
40
26
ED
1D
3C
31
BB
F8
22
23
1F
28
40
AE
BC
28
B1
E0
03
40
21
48
06
19
F1
2F
C2
9C
9F
0E
9D
3A
23
B3
48
43
E4
26
30
46
E8
05
FD
F1
33
FB
07
D7
99
34
E3
B8
C8
1F
E8
D6
AF
20
30
32
D8
2F
E9
F2
01
EE
F5
23
F5
43
31
69
0F
11
F6
16
20
08
03
04
83
2D
F8
7F
13
E5
33
16
D8
F9
12
18
0E
1A
3C
BE
DF
13
10
FD
40
0A
C6
B0
FC
FD
F3
32
29
3F
D7
03
E4
D6
14
29
01
13
F2
24
2D
1A
F4
F5
F4
DC
E6
2F
FD
E9
F7
2F
3F
21
FB
FD
D8
BC
BE
E4
F0
D9
D4
F6
2F
C4
B2
1A
40
D5
06
2B
0F
F9
D1
FC
DC
02
A6
23
ED
03
EA
0C
19
31
C9
29
0D
2C
E6
53
18
85
DE
09
AC
20
D8
D8
54
8A
0E
3A
02
F6
2C
2A
F3
0C
B8
05
B7
24
D6
4A
28
06
F5
12
D6
04
DD
F8
FD
B8
DA
F9
C8
DB
38
D6
3C
D2
FB
0A
D9
FD
2F
11
FF
FD
D0
1D
98
09
05
D4
FA
01
FA
ED
FA
17
04
F2
15
27
00
DF
25
09
27
ED
30
FE
0B
B4
CD
D3
4B
08
F7
DB
F7
B8
FD
EF
F4
0D
C4
F8
F9
2F
16
23
F9
DB
25
66
4C
DB
E9
2E
E0
94
CE
15
3B
B4
D9
D5
D5
E4
14
ED
1C
A0
6C
E9
10
0C
C5
1F
0C
CC
B4
FB
D7
0A
D3
CE
08
27
1D
D8
C1
4B
E9
47
F3
D2
B9
0C
C2
D1
D6
1D
10
A9
35
CB
61
51
9E
1C
02
B6
0A
BF
03
F3
E0
DD
FF
EB
F8
FB
04
EA
FB
FA
F5
D5
EA
FC
AF
09
17
25
02
C4
29
05
0B
46
BE
0D
EF
C8
0A
06
DA
12
E8
D6
FE
14
DC
CF
0E
11
DC
F7
BA
03
F3
06
B8
12
ED
DD
13
23
10
01
D9
F3
1E
2B
37
28
BF
F2
30
B3
EA
D7
CA
25
0F
1C
06
F5
2C
25
9F
E0
30
FF
BB
DF
49
17
EF
4B
D5
16
E2
AB
FD
28
54
A2
F7
34
3D
39
2F
08
1F
24
2E
F7
FB
BB
EB
3F
1B
B2
2B
C6
C4
CE
44
D7
D4
2B
1D
BB
2F
1B
F7
26
1D
BB
EF
44
07
03
12
0E
FE
42
FA
02
17
0D
C3
27
07
FA
E9
01
C7
12
30
FE
01
26
0E
C8
0E
12
F9
10
CE
CC
21
F3
FC
08
CD
FF
17
0B
D1
F0
C2
2C
0C
0B
E9
10
11
29
1C
F0
FB
43
F5
D6
21
07
FE
1B
E3
27
29
D8
1D
E7
E5
D6
24
E8
F1
EE
0E
19
C1
E3
18
F0
1A
52
E5
21
20
FD
B3
1B
05
3D
F3
7D
EC
F7
E6
E2
2B
29
11
81
18
00
58
D6
D2
F3
1D
1A
CE
F4
4E
B1
DF
DC
1F
53
FF
0E
FB
1C
08
2E
D9
1F
9D
2B
09
E3
27
DB
E9
A0
E6
10
E6
0A
CE
DD
49
C8
F3
D0
DE
FC
E4
23
2F
FC
F2
D6
F5
22
23
10
04
14
CE
2F
07
46
E0
22
07
0C
FF
10
03
DC
0A
30
2A
E6
0E
C6
E1
05
FF
ED
04
EC
10
AC
F2
0F
DA
32
24
29
0A
F1
E6
E9
10
3E
2F
34
0E
14
DE
40
28
F1
E6
F8
DA
0C
CE
F2
CA
FB
E9
DC
45
B5
14
D3
2F
11
1C
06
F2
C7
15
EC
C1
2D
F6
06
CC
AE
B2
E9
03
2E
DF
F8
D7
F1
24
10
69
16
F1
0A
E7
20
C2
42
CE
CD
32
24
48
CA
DA
26
BD
00
2A
F5
1E
0D
E0
ED
45
3B
DB
17
26
9B
18
3E
D7
AE
1D
0C
F3
27
BB
23
E2
C5
1F
0B
39
EE
F8
EE
97
0A
06
02
02
F8
FB
28
07
0B
E6
F9
64
D1
F4
35
CE
F9
F1
1B
ED
16
F6
2B
BE
F8
2F
16
42
00
2C
EC
E1
04
30
03
20
A0
13
F7
D8
B7
24
C5
E0
45
0F
44
12
3F
2D
E3
BB
29
03
9F
11
28
D1
D4
FF
E3
EC
9B
91
3F
E7
34
D9
F8
26
23
EA
3D
09
34
D0
E0
C5
06
EA
C1
27
F3
E7
E8
24
05
EB
DB
E7
E3
44
0E
F7
DD
EB
34
FD
32
E3
BB
45
35
CF
EA
D0
13
C9
3B
59
37
FC
14
24
FC
10
E8
DE
D4
E8
FD
F9
BA
08
07
DD
3D
10
33
12
DD
D0
17
C5
F3
EE
21
C5
07
1E
D2
0B
FD
28
33
EB
FA
35
16
4E
FE
23
F9
FE
11
1B
EB
F8
11
16
F7
00
E7
D7
BA
AE
D7
02
B8
06
FA
9F
F0
F5
C7
22
BC
BA
FB
4F
43
0E
D2
0A
07
D5
05
FE
07
2D
0F
D7
11
BB
0C
DE
02
11
0A
EF
A6
30
03
DB
25
D2
DD
1A
EC
20
D4
DB
23
05
0D
DB
CD
ED
25
F8
63
03
16
DE
2A
EB
EC
FE
E9
F0
04
F0
9B
D9
DA
9E
F3
EA
E8
CB
01
04
D6
2A
FF
36
04
B5
1E
DE
D7
15
F5
02
CA
29
29
CD
17
2F
2E
E3
27
FB
C3
0C
31
06
CF
12
3D
B7
01
FA
DE
36
31
FF
08
ED
FC
D4
21
0D
1E
08
F5
D6
CE
40
12
F3
FF
05
0A
F5
0C
29
03
B9
08
0D
08
1C
2C
D8
BD
05
19
0B
E7
FA
EE
61
0F
F4
FA
D0
FF
3C
47
E4
DE
2F
E3
08
0A
09
E1
D1
F8
21
00
E4
02
13
FA
CF
E4
1A
0E
04
36
F9
DE
DA
F4
E8
C9
F7
2C
05
4F
15
0C
09
16
00
34
1C
D6
96
F3
DF
54
E9
F0
3F
E1
F2
F4
15
EB
FE
FF
2F
E7
19
D8
14
C7
05
0F
E9
E1
27
EC
E9
FE
12
28
F6
0C
C0
16
08
42
1E
1F
F7
41
E2
0E
FC
0B
1A
E8
F2
21
0F
E1
01
35
39
19
07
08
E0
CF
E4
E9
D2
DE
C3
12
05
A5
D6
31
21
09
1E
2C
EC
04
D3
11
FA
05
AB
17
FA
0E
F1
55
03
FB
F4
F7
CF
0F
EF
51
E9
CB
CB
F9
B6
F2
D5
0C
67
B3
EA
05
03
F1
2A
0B
F8
F4
C3
ED
B0
07
0E
37
FC
F5
1F
E9
C7
F9
E0
09
16
D7
B0
0D
FB
D8
05
E4
20
C6
0C
0E
E9
02
33
0B
ED
01
D9
47
AE
1C
0A
C1
FC
F9
19
36
EA
17
0E
1F
D8
F8
13
E4
21
1A
2E
B7
3E
F0
20
B9
E8
F5
26
01
16
F0
04
D0
34
1B
0A
FA
F1
DA
C2
0B
29
F6
33
FE
19
72
18
B8
04
3D
24
DB
C2
0B
10
8C
E3
02
DF
17
E5
F4
1D
AD
37
D2
12
03
F8
22
E7
D3
C9
EE
93
03
E1
D3
DD
EF
29
15
D3
4B
F4
31
E2
F5
DF
4D
D6
E2
B9
2A
0A
CE
16
EC
22
F6
BC
44
F8
B7
D4
02
CC
43
09
ED
07
1C
18
F9
1E
DC
D2
D9
08
F5
1C
E9
DA
E9
E3
FF
E6
03
50
C9
10
50
D5
ED
F5
C2
42
E5
DA
E6
FA
E7
25
02
F2
E7
3A
24
F5
03
F1
0C
FB
E5
F8
0A
DA
D0
E7
22
1C
22
14
D8
FF
19
2D
4A
E0
17
00
C3
D1
E9
C0
FE
F1
DF
2A
D1
2B
E3
DE
08
EF
09
C0
FA
1E
0D
C6
19
E8
F7
1D
D1
14
34
31
81
0D
2F
5D
20
30
2E
2D
57
F7
D2
19
BA
DD
3B
04
E0
09
C3
A7
A6
42
EE
2A
FF
F4
E7
53
11
D9
06
E9
DA
10
02
23
13
22
FE
14
55
2B
0A
FA
15
E5
DC
EB
ED
F2
E3
EB
DD
24
23
0F
08
DD
22
30
03
EF
1A
D4
E6
17
23
09
F2
05
FE
17
15
D4
F1
C6
F7
29
1A
C3
E1
00
10
F6
21
26
07
D1
FA
26
11
F9
04
12
23
FD
04
19
CC
E4
B2
0A
0B
D4
FE
01
0B
C0
FA
F4
E2
FD
0F
E6
39
27
F9
A8
10
01
0B
E8
22
02
F2
FE
0D
37
21
BD
19
D2
B7
29
37
E7
AE
D5
2D
DE
9D
24
A1
C9
AF
BB
13
A7
D3
12
CB
EA
E4
13
DE
AA
01
00
2A
FC
20
EE
CF
CE
0A
BD
A9
F1
F0
F9
EC
34
50
36
F3
2E
F2
33
F3
38
F8
B7
AC
1D
06
A7
CA
27
C6
C7
2F
24
FB
BF
27
E7
F7
FF
C0
34
C2
08
34
02
A1
B3
F8
01
B4
E5
B5
D3
C4
43
03
06
BE
CE
B0
05
15
C0
EE
D9
EF
E1
07
0F
2F
F5
EB
10
C4
3F
E6
19
D3
FF
39
F0
CD
3E
39
37
CD
D2
B5
24
B3
F0
D8
36
04
C5
0E
D0
B2
B7
17
FE
D1
22
29
F9
3D
CE
AE
02
FE
CD
3A
F9
E6
C5
C7
F7
E3
25
3C
F5
FB
21
D7
FD
41
23
FF
38
35
39
F8
10
AC
F1
FD
38
22
D3
0C
1D
03
30
C0
C3
BE
CB
E6
0F
C5
B7
E8
20
F8
21
3A
91
EB
41
C1
17
EE
2F
4A
B8
41
BD
ED
C4
CC
3E
18
DF
A6
F5
D2
E8
29
25
0D
FF
16
E9
29
AD
04
D9
CC
CC
1D
BC
B7
3A
97
BC
DC
FE
4E
ED
F8
C6
16
FD
CA
FA
1F
E1
11
30
EB
D9
1A
06
C7
23
DB
EF
20
16
ED
AC
EB
12
F2
8C
B8
15
05
B7
D7
F6
9B
B7
C9
27
C8
12
11
13
34
C1
DE
3C
1A
17
22
D8
FA
F0
A3
FC
DC
B3
D1
EB
AF
15
C1
09
F5
81
AE
37
DC
F5
AC
D5
FD
13
0A
BC
49
D3
C2
BB
D2
33
F2
08
F6
CB
25
D2
27
D8
37
09
C1
3D
0D
E4
26
DB
F0
EB
23
E5
C1
28
01
B7
E5
E2
CF
0B
04
AD
BA
20
E4
E3
0E
E7
C3
E3
DC
0A
F1
AD
A1
16
B8
C1
04
CC
2B
F5
DE
BF
03
11
AA
24
D1
FC
DA
C8
B2
F4
A6
B5
BB
E5
E2
42
2C
42
CF
E0
B6
E2
FC
14
C5
B5
F7
C7
F1
A7
C4
D1
A4
B2
2F
1D
1E
E2
04
D2
CB
C0
F9
F3
C0
CD
E3
33
E1
D1
CC
E3
ED
EB
E4
9F
95
28
D6
0B
AF
0F
18
11
E2
28
B7
16
CB
BD
C0
E9
E8
03
30
36
EB
C1
BC
37
F0
29
05
F0
47
D0
1C
9D
FA
2C
DF
CA
CE
BE
DE
D0
43
26
2F
BD
06
BA
E0
00
47
D6
1D
E3
3A
0F
E1
BF
DD
E0
C4
E2
AB
EB
2F
42
28
09
FD
F0
32
0F
DC
2C
29
2A
3B
D0
2F
F7
09
37
13
E2
BB
FC
E7
16
2E
19
1F
0D
C7
A4
08
09
D7
C0
B1
29
48
0D
07
DA
1B
11
26
BA
23
13
F4
EF
1C
04
5F
FD
DC
E2
13
28
B7
02
EB
4A
28
36
F4
FA
DA
C6
D9
05
2E
CF
AD
E8
06
EC
51
EF
F7
D6
3E
34
F1
DC
24
FF
24
F4
1F
E0
F8
E2
19
ED
E1
CF
3F
0F
FD
CD
12
ED
FB
CE
E3
D2
04
10
F8
E6
DF
CB
33
2D
F7
DF
BE
E9
00
F5
44
15
F8
CA
D6
07
DF
B0
EF
C1
36
23
CE
08
F6
DB
BB
14
D0
E9
07
E9
25
E3
F3
0E
12
D3
FD
AA
FE
DE
22
1D
EB
BA
E5
E6
0B
E7
92
EE
40
19
D1
36
1B
11
18
22
EC
2F
A9
33
E6
19
09
FD
EC
E4
23
E0
32
3D
DD
18
81
34
43
D0
1D
11
D4
FD
2C
33
D0
25
F0
22
18
E7
E8
21
B5
2F
EE
B7
4D
0C
FD
3F
73
E9
1C
FD
08
DB
B1
16
3A
A3
41
12
B6
3A
50
57
E4
EC
F7
50
F0
EC
2E
E2
F0
03
E7
B8
48
20
DA
23
4B
31
50
1A
E4
D5
0D
18
30
E5
F5
FE
16
0D
CF
4D
3D
E0
17
33
1C
FD
0E
1F
F5
1E
07
64
EF
43
10
2A
0A
ED
FA
4E
07
D4
F4
1C
F9
20
20
03
29
22
37
4C
F2
0B
FB
00
F5
E3
18
C6
F0
D8
F1
07
0C
1F
0F
B8
0E
E7
E0
DB
46
1A
98
07
09
F8
D0
C8
F1
02
04
04
E6
38
F5
DB
E4
F6
FB
24
22
E2
21
E3
FD
A1
DA
13
19
27
E5
2C
D7
63
F6
00
0C
40
C8
DB
0E
5C
0A
22
DF
10
FB
01
E6
20
20
1A
23
18
17
29
27
C5
A4
F2
F6
F0
21
D8
CC
FE
F1
29
FA
02
FD
25
D0
F7
27
15
D6
01
21
39
FB
E9
CE
2A
0F
1D
01
78
F6
E9
B7
0D
EA
3A
DB
13
E9
1B
F9
E5
EF
15
25
E3
21
D4
11
5B
6F
04
EB
49
68
BE
FE
F1
37
D4
E9
E8
FB
E8
20
26
28
F3
1D
2F
F4
DD
08
1F
0F
E6
DD
EA
06
19
22
62
5D
D4
EB
FD
20
CF
22
D8
28
D0
11
2A
00
D5
32
F4
15
19
16
F8
F3
DA
FB
F1
C6
1D
14
F2
EC
02
27
09
34
EB
E4
CE
07
20
EB
12
30
E3
C5
27
0E
FA
01
33
B9
F8
BB
11
C7
DF
06
20
06
FC
0C
05
42
DD
D2
DC
36
17
1D
F0
2C
0A
27
40
4F
E7
FA
DE
35
1D
F8
04
DA
1E
E6
1F
C4
D0
26
E0
D6
0C
21
FE
26
4F
D5
F4
9C
25
0C
F5
04
D8
21
BB
14
E9
FD
17
00
F0
48
0D
41
F8
E0
FF
E5
FC
10
CC
0C
0C
F1
0A
F6
D9
D3
E0
10
22
D2
FE
CF
FA
15
04
2F
FF
06
37
F7
2D
E9
D9
05
D6
02
14
E9
E0
F9
F7
0F
EF
E3
EA
2B
E9
EE
E2
F9
24
21
DD
E0
1F
FB
F0
F2
E7
0F
03
F1
1C
09
FF
1B
FA
01
07
26
2C
FA
E8
03
EE
16
C5
D4
E7
34
E7
CF
13
07
C1
C8
EC
25
02
FB
E4
0B
24
DD
0F
25
E2
DE
FE
2C
F4
41
0B
F2
FB
ED
29
F6
ED
01
C9
F8
06
F2
F7
0A
F8
11
40
30
0D
CA
18
CD
11
D9
DA
0E
EA
F0
ED
46
24
02
FC
81
2F
31
E8
0E
E3
23
E5
FF
06
CE
1E
FD
14
18
19
E6
08
06
34
CE
C9
3E
F9
0D
F5
73
15
41
CF
08
FF
C5
1F
0D
DF
1B
F7
D0
33
17
27
E9
0E
1D
1B
2B
E3
E4
CA
C8
F3
1A
AC
5A
02
D8
1C
56
1F
10
0A
08
01
E3
0C
31
D4
27
1B
FC
0B
16
28
FD
D5
15
DB
16
D2
C9
12
F7
FE
ED
23
0F
18
D0
21
F9
33
1F
27
DF
1A
12
01
39
C5
20
25
1A
0A
41
24
19
F5
D2
28
F1
9D
E7
F6
FA
CC
0A
4D
0A
53
08
C9
19
E0
1B
F8
55
01
D4
15
3C
D5
1A
B1
01
1F
3C
F1
0D
27
F4
2A
C5
D6
C8
1D
D7
C7
E1
F1
D1
DB
E8
1C
ED
15
05
05
F4
F8
0B
24
34
17
DE
B4
15
3B
FD
A8
F8
0C
04
F6
E6
10
32
1B
FF
EC
06
D9
1E
04
F0
11
CB
F1
1F
EA
D1
EE
F7
24
E4
23
DE
03
D3
CD
F8
0E
D3
2D
16
20
ED
1B
F4
2E
27
EB
25
ED
0A
F0
B9
18
F9
3B
E0
0F
D6
00
16
FB
02
2D
DD
0C
FF
02
18
F4
17
D7
E0
F1
1F
C1
D7
EC
14
C4
02
B1
05
E6
DA
07
09
C1
2B
1A
13
D4
FE
07
DA
E6
B8
E3
30
38
12
3F
16
FD
06
E4
26
F1
EC
D6
35
EE
05
BB
F9
D8
0B
EE
FD
ED
15
03
DD
D0
FE
00
B1
0B
04
F5
13
0D
19
E6
2C
ED
E7
F3
F9
20
E0
10
3E
1A
F4
D2
FF
F8
37
05
CB
E6
D8
D2
F2
EC
09
03
C3
0D
FB
E9
24
32
DA
1A
16
26
36
EC
3C
E7
13
19
3B
00
EC
AB
C9
2C
1A
0C
31
25
1B
15
16
0E
FB
E0
E1
1F
1A
1A
E6
4D
F1
C9
FF
19
E1
43
D4
64
4C
95
BD
39
12
36
EE
BC
DC
96
AD
C3
C3
BD
B4
C3
31
87
FF
A4
B9
BC
44
0D
C6
E3
8A
A4
DB
13
10
3A
BB
28
39
CA
84
AA
1C
BF
DB
E9
99
30
98
01
2C
85
FE
D2
3C
E9
52
A2
0A
0D
B7
95
A5
2C
0C
B6
DC
6D
E3
AF
3F
E8
2A
2C
93
0E
84
B5
05
05
DA
B0
8C
DB
CA
36
99
05
CC
9E
E4
A3
EB
0F
F5
EF
8A
06
56
5D
06
BC
64
F5
E4
5E
B5
0A
58
E0
87
51
F4
5A
88
03
A1
C8
D7
A1
EE
F5
32
2A
E4
9F
4D
B4
52
C6
93
F1
A7
E8
9B
E8
89
F1
62
A2
E2
EA
9F
07
0B
48
F1
56
44
69
A0
9B
40
2D
6A
39
EF
9F
97
3B
1B
AC
2C
2D
B9
34
F4
CF
8F
08
46
CB
A8
51
02
E7
99
0D
AC
03
8B
C6
5F
EF
12
0D
E7
50
4E
2F
6F
D0
F3
DD
68
86
E7
F5
5B
2F
23
17
60
98
29
FC
36
17
9B
0A
54
4E
08
F1
94
1D
F9
C3
1D
91
1F
4E
12
38
B0
19
39
89
40
1C
35
DC
35
C0
4C
D1
AB
B1
4B
17
92
C1
02
DB
E9
C4
EE
3E
39
6D
C3
36
90
25
FF
63
DA
56
34
C3
35
3D
FA
49
A8
D9
EE
6C
BD
AA
06
C0
B5
D6
8A
C1
1B
2D
4C
6B
C2
1C
AD
39
29
4F
9B
45
C3
A6
A6
C1
0F
B0
48
6F
3F
68
8A
E2
66
3C
66
09
58
F1
42
0A
23
1B
1F
AA
5A
D4
D4
F8
1A
59
40
86
AA
EA
19
9F
19
6B
51
B3
DE
8A
23
A2
F4
1B
6F
88
2F
93
9D
D5
64
2F
1A
9F
BD
34
50
43
05
2A
86
A4
1E
E7
4D
D9
F0
92
F6
5C
18
6E
99
6A
35
3D
6B
27
4E
BB
06
DD
9A
86
3B
14
CF
8A
E3
49
96
F3
44
98
30
B7
C0
BE
39
C9
99
8D
D1
65
96
A8
6A
8B
2C
16
85
A5
81
B8
64
EB
FD
4D
EC
1B
A9
F4
5B
E1
08
9E
E9
D1
ED
E8
D5
2B
A9
53
2B
E1
13
32
B1
47
56
F5
11
B6
5F
D8
A7
52
AB
B9
C5
EB
C6
45
50
12
5D
A1
F1
C2
D9
FE
01
13
9D
1F
60
61
CC
92
AE
A2
B0
2C
16
68
0F
EC
97
E5
F6
A3
2A
AC
96
9E
5D
1D
4A
E7
02
03
1E
08
1A
E3
F9
18
EF
6E
1D
43
FD
60
85
16
41
0E
DA
3E
E9
E0
A3
8C
69
4F
0B
D8
06
00
F5
2F
5A
F9
E7
DF
0B
01
04
C7
36
21
0D
0F
40
00
ED
C8
D3
17
03
2F
E5
09
11
17
E8
29
49
CE
02
D8
0B
17
03
DE
E0
D7
08
0E
19
C2
15
FA
7F
07
F9
F1
F2
F4
DC
E4
1D
0E
D2
19
F0
14
1E
F1
0F
00
F1
CE
EA
E9
FF
00
D0
09
C4
EF
EE
DA
07
CB
1C
38
E2
F6
0F
BF
DE
F6
18
15
0D
EA
12
0D
D2
CE
FA
1D
5A
E8
FF
E9
F1
C0
D1
E5
DF
C3
D8
15
F2
16
50
41
06
F5
31
E6
1C
05
42
14
EB
A6
35
ED
FE
0C
16
0C
69
2C
DC
00
E3
21
F3
07
F1
0A
AF
DF
21
22
15
FA
BA
0B
53
C4
2B
3B
FF
28
D5
F2
32
BE
2F
FC
40
1E
23
41
13
F2
F8
06
1A
05
D3
EF
E2
08
00
F5
19
44
F3
71
31
C9
FE
40
24
07
FD
09
41
EB
2B
00
0C
F4
26
6F
2A
E0
2E
05
0D
D8
09
01
EE
4C
F8
D2
E6
FF
DA
FA
F0
F0
09
2F
08
12
41
D1
CB
0D
E7
16
09
D9
A4
17
5D
28
25
29
39
E4
2C
42
F5
0A
56
3B
C9
04
E2
1E
9F
0C
F7
03
13
15
EC
2C
B2
3A
D8
0E
04
07
29
2A
E3
E3
D4
D2
0F
0A
F0
F5
EB
11
F0
EC
FA
FF
06
C3
00
F0
00
0A
03
D1
0C
13
DD
25
0F
03
FF
10
D8
04
E3
DE
18
10
2E
02
0F
07
16
FE
FF
06
0A
98
F1
02
DD
12
01
0A
BA
30
35
F0
FD
50
D7
1A
11
06
D4
55
AA
06
04
53
25
45
26
1C
17
0B
F0
3F
00
B6
DB
DC
21
2B
DF
C1
F0
D9
02
00
F9
F6
0C
5A
05
F3
2E
EE
ED
C9
0C
3B
3A
E5
DF
EC
23
19
E8
6E
37
17
C7
F6
F8
FB
2F
06
CF
21
1D
DE
24
2B
15
C6
06
CD
F4
29
42
28
4B
47
1F
01
05
1E
30
DC
D2
22
D0
C3
1E
D6
DD
15
F4
E7
DA
2F
39
03
29
00
D8
F9
CD
F9
05
08
73
17
13
F0
0F
2D
FF
E5
48
E1
EE
E6
EE
F2
09
E5
FB
DA
08
B0
E6
D4
00
1A
19
0B
25
EF
E6
28
12
07
44
F9
ED
DA
EF
F4
23
0E
23
FE
D1
29
FF
F2
12
0F
F2
0A
FA
EF
DF
E6
05
F1
16
08
24
E5
4E
22
15
06
18
01
F6
D3
F1
07
33
FF
3A
1A
F3
F7
F3
11
F5
D6
F2
FC
1F
09
C7
C9
0A
09
E3
D2
2F
FE
16
37
DA
E7
EB
EB
33
D2
17
22
09
F6
64
F1
E3
FD
FD
0F
39
F5
39
29
C0
2E
B1
32
07
CB
30
1D
E2
0E
DF
06
11
0F
F3
CB
E2
E7
0E
13
E2
B0
0D
F4
FD
FC
4A
E0
E5
E7
EC
BA
06
30
DF
17
0B
B0
E5
36
0E
F1
EB
29
A8
EE
31
F6
CE
FF
F2
FE
E7
F2
1E
DA
22
50
F2
E5
04
0B
01
E0
E2
FE
2D
35
13
E4
E0
F6
04
9E
EC
F9
31
27
F6
08
DD
FF
10
E9
BB
E7
04
EA
FD
55
CB
0A
23
E1
F1
D6
E5
F4
3E
DE
2E
F9
E1
E8
28
D7
D3
EA
F6
D1
DB
F4
27
11
2A
1A
3B
0B
C3
07
0B
0D
11
18
F4
F1
FC
D2
12
09
35
DB
8E
38
39
DF
E9
13
EA
EA
28
EB
F9
E3
EE
17
0A
F8
0F
CB
BC
ED
D7
CA
7F
0A
2B
EE
4E
0B
40
1C
04
30
A4
3A
29
DC
10
1B
D1
00
12
34
33
E1
B2
16
33
D6
CC
CF
B7
13
EB
D4
29
13
C8
08
03
F5
27
12
FC
F7
D0
06
14
B3
18
3F
00
F9
24
F6
F6
DF
F8
0E
1E
D9
07
1E
06
F6
05
1C
F7
22
D2
34
15
E0
00
FD
FC
15
3C
E3
1C
FB
4B
5D
49
E2
59
0D
29
E3
EB
2E
E0
9A
C7
FF
E5
ED
EB
E7
F6
1C
0B
D9
29
C7
19
E3
63
3A
07
01
13
CA
42
FD
04
17
20
F7
B9
05
04
0F
F4
C9
05
46
CA
05
17
E5
39
E0
E2
24
FD
20
E1
E7
D5
3C
F3
28
1E
30
CC
A5
D1
59
B9
D4
EE
08
12
1B
D0
E6
3F
08
D9
F1
33
E7
E6
D9
CB
EE
16
1B
0E
E5
DC
D6
FB
28
15
FC
FF
07
20
F5
F6
0E
2A
07
24
23
3A
1C
1D
3E
1F
08
01
25
1A
FA
F3
EB
0D
38
FC
B3
F1
05
38
01
E0
FF
B5
2C
04
EC
34
C8
F6
01
08
1F
FD
EC
0C
F0
DA
0F
07
08
DC
E5
D6
CF
43
CF
06
34
0B
BC
BB
13
1E
E4
CC
D6
0C
F5
DF
F9
0A
01
FA
F5
F9
EF
02
01
0D
36
30
DE
FA
06
A9
F4
E3
E9
25
26
1D
E4
01
1D
29
F8
E7
DE
E1
19
DE
10
1F
46
04
FF
0B
2A
EA
35
C9
3C
14
36
DC
DF
B2
D2
8B
E2
13
BD
EF
D8
DB
D7
FF
1D
27
06
0A
1B
09
EE
F1
FE
06
E3
E5
1F
2B
02
09
ED
EB
D3
D5
E5
F1
D1
FF
1A
3E
FD
16
D1
DC
C2
D3
EB
1A
F3
D5
18
C1
9A
99
CE
CE
03
87
27
C9
13
A6
60
16
DA
36
EF
CE
CF
90
CB
3A
AE
DC
F0
39
15
0A
56
8C
25
B1
D9
A1
05
C7
04
DE
BE
89
0E
29
B1
03
C2
02
44
67
17
AC
53
73
56
34
FF
43
5C
E8
4B
EE
88
9A
B7
67
AD
50
57
2F
AB
E0
DB
0B
B5
4F
E3
DC
1A
10
95
DA
B1
05
F7
DD
C3
5D
4F
65
F3
3E
25
53
CC
D4
8B
94
D2
F8
BA
A6
49
8C
DC
8B
44
AC
E0
CB
2D
AD
09
84
34
85
51
3A
9B
44
51
1A
23
BA
00
A6
1B
90
12
D0
00
16
A1
4E
4A
31
5F
0F
66
91
F0
47
4E
9B
9A
B8
8A
98
4B
C4
AD
40
E6
2A
95
D2
30
F4
A4
3A
13
69
B3
F7
45
31
44
FB
1E
9A
4D
61
EF
D5
55
AC
1A
91
28
3B
EB
FC
9F
3E
F3
67
86
2B
1B
23
C4
AC
F5
39
E7
14
C8
20
A2
E3
68
57
99
84
2C
8C
D8
CA
29
28
0D
E9
CC
BE
FF
90
10
0B
A1
52
61
41
5C
A6
F1
50
4F
97
21
17
53
B8
37
1F
4E
5E
E4
DC
3B
C5
E9
86
BB
5C
E2
18
87
60
4F
E6
BC
B1
39
A7
58
3D
8F
3E
06
01
C3
94
48
41
EF
19
EE
88
30
E1
57
11
FD
CB
69
FB
DC
2B
90
31
29
0E
A5
E2
A2
BF
1B
95
C0
55
2C
BB
39
9C
21
18
CB
A2
9B
44
65
62
3C
21
3F
98
D9
E2
EA
9D
85
0E
9E
0A
46
D4
97
18
1E
A5
8F
E9
B8
81
EF
4E
1E
5A
E8
05
8F
89
EC
05
B0
9A
99
2F
9C
A0
56
99
AE
D8
45
05
FC
FB
28
B0
D9
8D
B8
17
E3
8D
94
01
2D
23
D1
A6
49
D4
52
22
CC
23
F1
8C
A2
13
E4
00
C4
53
4C
C5
CC
D2
C3
FB
91
ED
D7
41
68
33
17
9C
45
E6
17
2F
9A
B7
0A
93
A1
F5
35
08
05
4E
56
CC
E9
E2
D3
3F
A8
C1
56
AC
CC
57
B6
32
4F
90
BE
50
E1
47
B7
0D
4D
0B
27
3A
AD
16
9F
B9
58
25
00
DB
0B
23
CD
9A
C0
CB
8B
D2
1A
CD
AC
46
DE
B5
E0
D4
56
B1
54
0C
14
9F
E6
4A
B3
A1
AD
11
8A
4F
31
D6
3C
32
91
11
2B
3B
52
B1
A3
9D
24
E6
59
9F
8D
9A
8E
40
8F
47
14
A1
99
90
CF
09
9F
24
25
51
FC
EA
51
90
FF
30
F5
9D
37
E8
F7
BC
8D
C2
CB
F4
33
36
D5
8E
1E
E6
4C
0A
11
C9
1C
02
F9
F0
EC
E2
E8
D0
24
35
14
F5
FB
5C
E8
2D
E3
1A
F7
3A
DB
E6
F0
DA
06
B5
FA
0F
06
FC
DE
C2
1C
CE
F7
EC
F9
39
03
24
E4
E9
04
E0
E0
1E
33
F3
25
0F
EA
19
34
0C
0D
0F
17
F9
05
28
00
1B
0A
11
EA
FF
E9
EF
2A
E4
F4
12
06
F4
22
F9
ED
E5
FD
2F
00
1A
FB
23
2D
D8
DD
6C
17
29
33
FA
F9
3D
0C
F7
00
DF
DA
2A
00
BD
11
E3
08
F4
11
CB
F8
F9
1D
35
05
0D
01
ED
DE
05
97
1F
B1
F6
E2
ED
C0
C7
0D
4C
F6
F7
1A
EB
2F
0B
2B
F5
20
FC
E9
10
B8
6F
0A
DD
F5
32
18
21
FD
2D
CA
F1
21
F6
D9
E2
DD
FF
38
F8
F2
14
4F
CD
2B
0F
F8
C5
0E
FE
2A
F6
F5
13
DF
D8
16
E9
0B
C6
DD
E0
D7
22
23
0C
EE
04
0F
14
22
CD
B7
20
48
D2
EA
23
F2
E2
F0
FC
E7
F9
02
EE
EA
D7
16
F9
0F
E9
FE
0F
D1
05
01
0A
D2
B6
2E
26
0C
0D
E4
F6
DB
2F
F1
3B
DA
1C
E8
18
E1
0C
C6
D5
24
EF
FA
EE
04
19
DA
91
A0
F1
09
30
C1
2B
39
13
25
27
2B
12
CF
0C
FC
EE
EA
21
FD
F0
06
D8
22
F6
F9
D4
10
D2
50
35
E7
04
EB
46
D2
0C
FA
14
EE
01
CD
19
F9
14
D8
F4
18
EC
EE
4C
0B
E2
18
DE
0C
01
DE
06
F2
E2
2A
2F
CF
3D
2F
FE
03
EA
DF
FB
EE
D8
D7
C9
D8
F8
1C
1E
3A
EE
FF
1B
F4
EA
14
1E
F8
CE
EB
DD
15
0D
D1
35
19
1E
24
ED
27
E4
ED
EB
D3
23
DB
BC
20
07
DF
EC
D9
E8
1E
18
F3
F5
F4
33
02
DE
1D
FB
EB
21
D7
27
FE
E1
09
F3
E5
32
EA
E7
57
0E
37
C7
21
0D
D2
F2
1F
17
F8
E4
F1
F1
13
FF
23
FF
FD
B6
F3
34
42
3B
E3
BB
F1
EB
FE
F1
EC
DF
00
FE
FC
BD
EA
DF
E3
EA
0D
F9
E8
F7
11
C8
32
12
22
35
EF
0E
F0
08
08
10
D7
BF
21
15
01
0D
E9
23
FE
E0
D7
FF
01
FC
F4
DF
16
23
D9
F3
16
F3
FD
28
08
F7
EE
FF
E6
1C
34
FF
0D
15
26
28
06
10
0F
E6
E3
2A
07
3A
F1
EE
CF
0F
09
17
04
49
E4
08
12
07
2C
09
EF
F5
4E
1D
0C
7F
EE
21
A6
F8
CD
D8
40
D5
0A
E6
E8
8E
CD
B2
A7
17
A0
39
BB
F9
D1
B7
C4
D7
F4
EC
00
34
32
BE
DF
B1
D1
8D
D1
F5
F3
19
9F
00
35
37
26
3B
AA
12
33
16
B1
F5
11
E6
9C
21
1F
C5
CC
1C
F4
38
20
D2
2D
DB
B8
D7
A9
94
91
27
B3
02
94
E5
48
EA
2F
B1
83
D5
C0
BA
86
F0
00
38
23
A9
94
2C
F1
DF
C9
24
E7
16
24
D7
BB
F8
D2
29
2B
03
DA
12
16
AA
2C
C1
A7
08
A8
F1
E6
03
1E
97
C5
CF
E0
1C
E2
2F
A6
E0
E7
A7
81
DB
A3
32
24
A3
8C
E2
03
0A
16
39
D7
22
36
30
DF
B9
B5
3A
90
CD
98
DA
D0
2E
9D
33
04
9A
A4
37
32
D2
47
ED
B8
1F
B2
B6
A7
EE
B4
13
F3
FA
21
F2
2E
14
A8
89
17
FC
13
A7
F4
8E
44
ED
33
EF
29
2A
09
48
16
10
EF
C5
37
E9
05
F0
9E
FA
A6
AE
A0
90
DF
B6
31
24
9F
22
15
DC
16
DE
A2
FA
B0
AB
2A
57
B0
0F
CA
35
AD
20
DC
38
24
51
9C
08
06
BA
C0
A6
14
BB
90
11
B1
12
26
A2
E5
C1
2F
8A
DA
18
BB
BA
F5
9F
11
DD
DA
E0
EF
FD
0D
FD
F3
FD
2E
24
EE
0C
C2
C7
B7
4A
90
EF
B5
2E
FD
D4
D4
C5
50
4F
F7
A9
0F
C8
04
CA
E5
3A
F6
EB
8D
DE
33
C9
15
BD
11
40
2A
8A
0E
D9
0C
C6
FE
BF
2E
CD
F1
01
E9
B4
06
BE
C2
30
44
B4
B3
DD
24
48
C7
20
4B
10
A0
08
30
B6
0E
A5
2B
05
1F
BE
11
C7
22
30
38
33
EE
CB
E4
1B
8E
8E
97
B2
EE
01
22
1E
3E
A7
E9
C9
C9
C0
3B
DA
DF
35
F1
FF
DC
CD
1E
BA
11
E6
BD
1B
89
3A
CB
28
2B
EA
D6
F6
1E
C6
2A
B9
30
4F
00
42
1A
E0
F9
0A
D8
02
E5
94
21
36
A8
DC
FD
B9
F1
1F
C6
15
18
4F
14
22
A2
A5
36
CB
B6
0D
46
AC
D4
45
C1
0E
0B
3A
BB
9B
E1
3E
A4
C8
F1
B2
DF
B0
D8
19
D0
E4
BD
CC
9A
D3
3D
DF
16
2A
45
DB
11
3C
A8
35
B5
B1
B1
10
14
9E
A4
E1
1E
C4
04
C8
37
0D
E8
35
0A
2E
39
D5
13
0F
0E
BF
0A
FE
F2
BD
3B
00
39
D8
2E
9C
14
36
FA
94
FD
1E
05
C0
9D
EB
E7
F0
17
A3
12
3D
07
EB
9F
08
11
C3
23
E6
D1
F7
46
15
46
08
DC
CF
5D
09
E4
35
37
B8
05
9D
B7
53
B8
E0
29
F6
D9
B8
AC
18
5C
DB
09
1D
D8
27
3B
B5
39
1C
FE
00
BD
DD
36
CA
EF
C2
D0
47
B2
FD
B6
38
1D
11
01
0B
17
93
37
08
DD
23
37
F9
06
3B
C6
D0
D8
17
E2
0A
D3
CD
D5
B2
01
C0
A0
3C
A9
08
AF
15
E8
E1
36
0E
CF
1A
FA
22
4C
B4
D4
1B
BE
D3
13
2F
39
23
06
CA
41
C0
46
BF
D6
D5
D1
3D
D1
B5
FF
FA
2D
C7
02
02
B2
0E
FB
ED
A6
33
B5
17
CF
14
CA
DB
F4
2C
DB
CE
F4
A0
00
32
B5
E3
92
21
34
2D
C7
EF
B7
0C
2B
5C
A2
BB
DF
97
62
17
2D
13
C2
0C
C5
F9
F5
04
FE
91
B6
B3
D1
48
09
D6
DB
CD
A8
F4
0E
39
E1
9A
07
27
BC
53
F2
07
21
F7
FD
C3
F8
FD
E1
D9
9D
AA
AC
CB
C0
A4
16
14
10
28
E0
DE
E4
E1
C9
18
FB
BE
A5
FA
3B
BC
C1
A5
B0
BB
1A
2C
EF
95
EC
45
C2
FF
E5
18
99
9A
D5
04
0A
A6
EA
53
21
03
20
FA
DB
EE
15
D6
9E
33
AB
47
F5
11
16
BD
4B
81
D0
D7
44
26
AC
F8
C7
EC
12
37
B9
31
B8
F3
D5
13
65
E1
9A
AF
B3
CB
F0
D7
AC
16
C7
B8
F8
28
14
15
85
BF
BD
D3
60
FE
D4
B4
27
D2
10
D3
1E
F6
EB
D7
D1
34
BA
B1
15
DA
B0
FE
23
32
2F
21
0B
01
24
D4
03
37
C9
3F
14
3E
E6
0B
F2
B0
DB
EC
E7
4D
B9
FE
4C
22
DB
0A
F0
D1
03
B3
2F
D5
B5
9B
C7
1F
04
07
FD
CE
2F
0E
49
01
FD
35
D7
28
F6
25
C6
4F
3B
9D
EE
2B
4B
FB
2B
0E
D5
98
C6
DA
2B
20
FA
E0
AF
09
26
B3
00
D3
B6
22
0F
F2
B5
04
BB
D4
44
D8
AA
E7
1A
BF
B4
AC
F9
EB
AC
14
3A
10
39
3E
E3
23
07
DF
23
BC
1B
E8
39
9D
B9
D8
1B
41
D8
21
33
45
F2
E0
BD
D9
C8
B3
CD
08
DE
A5
3E
1A
EF
4F
BE
4C
EA
E2
EC
E6
C3
E1
E5
A5
03
03
2A
8F
46
16
F9
90
A4
1E
BA
CC
20
DF
49
C9
F2
B4
BB
29
1D
F9
07
16
F3
28
07
B5
D8
D7
33
86
C5
0C
CE
97
DC
A1
58
DC
9A
E1
1B
EE
DA
04
AC
17
C2
0F
C4
00
02
1B
1B
2C
1D
81
4C
0F
29
CC
BB
D4
3E
F6
F1
FE
40
BB
C2
1A
27
6A
F1
0D
BC
23
EA
FC
0A
3E
BC
D6
05
FB
29
B7
0E
CF
D5
04
0B
0B
CE
0E
10
BB
DB
19
2B
16
DE
46
F7
F8
D7
CD
1B
F5
1F
4B
07
EE
CB
4C
FD
3F
06
12
31
14
1F
1D
E9
2E
1D
F0
0B
D1
FB
ED
3C
F5
DC
E4
20
FB
24
E5
EF
14
19
32
16
E4
FF
D2
1F
D8
C4
3F
1D
41
67
11
09
1B
41
0E
ED
08
B7
0E
FE
D4
BE
E9
F1
DA
26
DF
28
DA
5B
C3
0C
AA
18
0D
00
E3
EE
1D
A6
FA
2E
BA
09
C5
CF
3B
B9
2B
20
CB
00
16
41
E3
E1
BA
C2
27
E8
68
C1
CB
46
12
41
D3
F0
2B
AA
03
02
FD
0B
02
F2
1B
62
06
9E
43
49
C2
DC
F4
ED
B6
2F
E3
24
EA
EE
58
11
A2
29
FF
ED
3D
EE
E8
92
14
2B
DF
FA
9F
E2
CF
05
20
9E
E1
D6
CB
EF
33
DB
E1
E2
EA
CE
DA
45
03
EA
F6
D4
ED
CC
E2
2B
24
FC
B7
F1
E9
E4
B9
F0
02
DA
16
E2
DC
DC
6D
C7
71
FB
19
E8
C0
D5
F0
F2
F9
03
F3
F9
01
2A
23
25
A1
A0
32
34
35
CC
04
46
42
05
36
FA
22
AB
CE
17
FB
F6
03
F4
C7
06
0E
EC
2D
F3
3C
D5
E1
29
34
05
E9
61
29
0E
07
10
D9
0E
23
FF
0E
F1
E8
FC
E8
10
20
EA
25
08
C9
50
12
37
DA
E1
F7
1E
02
25
D1
FB
2C
2E
2E
FA
D5
E0
CE
D9
DC
C7
F3
F6
2A
34
FA
41
EE
24
55
E7
F6
39
11
72
E7
F4
C5
F5
CA
3F
D5
14
0F
1A
41
F8
F8
9A
86
E1
F6
F7
ED
2F
EB
9F
30
EE
ED
45
0A
0A
28
18
31
0C
D9
E4
08
FD
2E
F3
1D
D7
D8
B6
F2
CD
F3
B9
A3
35
EE
10
C2
03
23
16
33
06
EF
F6
CE
23
B2
E5
22
0A
1C
D8
D8
11
53
27
39
1E
E5
82
F6
E7
D7
06
D5
F6
08
09
C7
2A
09
EB
35
06
1E
F2
2C
DC
D1
41
F0
27
49
BF
1B
F1
3F
21
17
16
EF
10
F9
C6
E9
37
F4
ED
FF
D1
24
0A
E9
1E
C4
1C
23
DE
3A
13
F8
DE
13
25
20
FD
D2
B8
FE
09
1B
0A
E5
1A
E1
22
13
FC
29
07
34
F0
F9
F4
07
C2
20
FD
1C
EA
DB
D9
A6
B4
35
1D
E3
1F
06
58
BC
27
17
E8
2C
35
D2
06
AC
30
CC
BC
EF
57
20
A7
24
FE
D8
C3
2F
26
3E
DC
94
3A
C6
E5
E8
EE
DE
47
B8
D6
12
03
F9
FA
11
25
8D
18
86
AB
B9
3F
2D
B2
CB
0D
3F
0F
A4
95
C9
0B
F8
11
48
92
F7
BC
12
23
97
37
C4
44
19
4B
EE
9B
1F
CA
37
AD
D7
E7
45
98
F0
BE
EC
AC
C4
14
F7
B2
9B
2E
98
2D
0D
A5
C7
A6
B3
9F
27
DA
C1
EB
F3
F2
AC
27
2C
B8
EA
4C
EF
C4
15
E1
E9
44
F4
13
C9
A1
B5
2A
B6
89
3D
15
2C
A7
FB
A3
11
A8
FE
19
3C
17
36
CF
06
1D
4D
E6
C0
0A
C1
35
B3
F6
C9
8B
36
E2
DF
11
E1
13
8C
9A
11
40
DA
9B
31
25
F1
CB
97
F2
1A
F1
2D
06
A1
AE
B0
EA
9C
27
8B
98
F8
A7
C6
1C
BF
CD
B0
A5
F3
15
10
BF
25
14
09
DE
D6
A7
A7
E2
9E
DA
A5
99
59
30
40
DE
C7
40
88
02
04
D0
A6
95
02
33
B9
E0
C5
2D
2A
37
AF
4F
B2
08
0C
1B
B6
BB
9F
39
1B
08
A8
12
A3
D3
C9
4C
00
A9
27
4D
A8
1A
9C
2F
AC
00
F8
F0
C1
9A
EB
A4
47
E3
FA
94
DB
DA
2F
09
EB
D7
3F
1D
C3
5A
A6
59
38
0A
24
A5
31
A0
9E
43
0C
E4
98
0B
1A
35
40
59
55
B3
9D
BC
39
D6
3E
F5
38
8B
A5
02
9F
19
01
D9
A9
1B
EB
20
C0
DF
EB
23
C5
D2
BF
97
05
88
3F
8C
14
A9
D4
B0
50
E2
96
F1
EA
FA
31
41
EF
F2
D1
F0
A2
D9
8C
3B
8B
4F
A1
E1
F8
98
3B
9A
1A
F6
4A
13
E8
07
A0
4F
F3
E0
28
0B
AD
3E
12
D2
28
CC
14
63
EB
4F
DB
DE
B6
3D
A2
99
46
48
15
17
B3
F6
A4
2A
4F
E0
E9
45
C2
AA
98
D6
29
FF
45
CF
00
CC
DB
A4
89
B2
22
B3
3F
C2
C9
C8
AE
34
CD
EF
9B
9E
0E
2B
45
0A
89
40
3F
92
10
23
A9
E5
31
50
FC
42
CC
21
00
D0
AD
CD
34
AE
2F
08
93
D5
CA
D6
CB
A8
21
0B
ED
D1
F8
39
1A
E4
CE
AE
A0
2B
1A
39
E8
CB
D6
E2
D0
FE
3B
D2
11
F6
BF
9A
FF
F4
3E
01
1D
AE
EE
47
36
CE
FA
8C
D6
FB
2F
BE
F7
89
C5
A0
29
CD
DB
1B
49
27
3B
C2
81
9C
9A
2D
39
C9
B3
AF
CB
CF
89
05
44
96
CC
F1
C7
11
AC
00
55
8C
E5
CC
0E
12
CA
11
E7
3B
4C
3F
1F
14
0B
1E
D7
EB
25
07
2E
E8
18
F2
98
FF
30
E7
B2
03
B1
03
29
E1
FB
B5
00
24
1A
49
01
1D
EF
B4
1A
DD
23
23
B1
3A
28
D6
27
12
14
E1
41
40
42
FF
08
05
FE
EF
E0
F7
1A
E6
D8
1B
FF
06
98
11
04
DA
FC
C8
05
E1
C6
F5
F8
FB
04
18
18
F9
C5
F5
06
0D
FD
E0
34
3C
D6
25
0F
35
DE
B6
4D
CC
E4
02
20
04
EA
3E
3E
F2
01
18
B8
17
D8
DB
D0
16
B3
C2
B1
3A
DB
F3
DA
D4
C5
7D
37
1B
31
7D
19
5E
14
DB
2E
06
CA
0D
18
0E
25
23
D7
F2
F1
55
FE
3F
B6
D4
0E
E1
E7
63
FE
4E
16
0D
40
3E
F5
01
E7
D7
4F
C4
E8
C9
0E
EA
10
D8
35
4C
EC
37
F6
31
1C
FD
E8
00
D8
A2
0B
12
DD
F0
CA
11
FB
F9
08
0F
C3
97
58
04
D6
D4
41
21
07
AD
10
F5
C9
0E
D9
07
01
E8
F0
2B
2A
F3
A8
ED
06
04
3D
01
81
A7
FF
10
92
A9
23
3C
EE
A1
73
21
E6
F6
BC
67
16
57
7A
BB
04
32
C7
FE
ED
ED
0F
39
30
53
C9
37
2D
35
E4
BC
4B
0F
B0
1C
CD
26
4B
22
CD
FC
FD
6D
F1
E4
31
AF
FF
F2
72
09
01
00
31
1C
F0
E6
E1
E5
D1
3C
0E
CB
E9
CE
03
44
E2
06
07
24
D0
26
18
EE
FC
20
20
E5
22
D1
0A
31
2C
A8
FD
F7
EA
ED
D2
D0
DA
CE
CC
FB
FF
F9
09
16
16
05
C0
28
EB
5C
FA
D2
EB
ED
01
DB
FD
E8
40
04
23
F4
E7
27
13
C4
EF
2A
5C
5B
E8
D0
05
F5
0A
19
15
6F
B3
22
ED
69
EB
DE
F4
2A
EE
35
0F
0E
2F
63
DD
E2
4C
E9
CB
FD
CD
E1
08
E5
ED
B9
14
E7
16
45
25
F4
2F
E1
6B
3C
14
B9
0A
1E
DA
DD
F5
F8
3C
EE
BC
1F
07
08
06
DF
F5
F4
DC
0B
FC
BE
01
D7
1C
1C
FF
EF
CE
F5
09
22
04
DD
E3
CE
B5
F1
F8
36
BA
09
F0
C8
FA
F4
E5
BD
10
30
D8
CF
3D
10
D0
54
03
C9
E5
61
1A
D2
E3
E8
B7
01
E4
D0
0B
3D
11
CE
3D
2B
DC
2A
FA
32
F2
F4
76
FA
30
20
24
1F
DE
4C
15
42
38
44
36
3E
CE
EC
FE
4B
C6
E4
E1
5D
FA
DE
3F
06
12
16
13
F9
A6
F6
0B
02
02
0B
F3
0A
17
E8
F1
19
EB
DF
EC
27
2A
05
02
F1
1B
E3
04
C3
13
C8
DB
F7
0B
06
C3
01
CE
E6
2A
0C
E5
D1
BD
36
DA
DF
F8
25
18
FB
03
1F
F4
EF
CF
11
1A
19
11
F2
0F
21
26
0E
31
0E
18
27
F9
12
14
D6
D5
E3
19
1D
DE
00
C0
13
CD
F1
FD
12
04
12
FF
1A
14
15
24
03
23
DB
B8
0F
C6
EE
29
29
1F
3F
E8
0B
1E
1A
D9
CC
0D
D2
ED
DB
E7
14
F7
1F
10
26
DD
0A
16
5C
F1
09
E0
00
13
F9
15
F0
2B
C7
0C
05
A7
13
13
2B
60
1C
07
0C
0C
11
24
4C
13
FC
DF
AA
F1
D0
21
06
BF
3E
0F
38
CD
F0
11
FC
17
FE
FF
04
EF
F7
F8
2A
2C
03
38
5B
BB
E4
1D
CA
B5
2E
EA
25
2C
EC
1E
F2
AE
32
06
F6
22
DF
0E
BA
F4
35
FC
E6
D0
0F
20
03
09
F2
07
02
C5
F9
23
D9
D8
F2
01
BA
ED
E7
06
BA
EA
1F
0A
F4
00
04
09
EA
EE
09
F1
FC
D7
F4
CE
CB
01
F4
DE
ED
3C
11
39
FC
3A
EA
EE
0F
05
FE
C3
10
10
CA
04
24
29
03
81
A2
FD
E4
23
A6
04
32
1E
F1
09
E8
06
B6
E8
EF
E7
F2
13
F0
AC
EF
E1
16
19
18
02
DE
ED
06
37
14
F7
32
53
EB
12
F7
EE
01
2C
01
13
D2
0E
09
FD
41
31
11
F2
DD
E9
07
01
0A
FC
CA
08
03
E5
1B
D6
F8
16
07
07
13
1D
D7
12
E1
C2
E2
FE
F2
0B
F3
0A
18
21
E7
2E
E2
00
10
2F
32
E7
0B
F8
E0
F6
1D
E8
2C
0A
1A
F3
FA
F5
BC
D3
D0
2F
11
D9
F4
09
97
04
0D
0E
43
E4
DF
FD
3D
30
DE
E1
1B
F0
11
16
F6
1D
13
AD
BE
F6
E4
00
C8
E8
19
F2
0D
D2
0F
40
04
11
40
D1
0C
FE
E7
F7
04
3B
06
DB
F1
A2
C2
2A
F3
3D
D2
1A
E6
D7
F2
1F
06
DD
F6
E0
D8
BB
E1
10
CE
02
FC
ED
14
EB
DF
D2
33
17
1C
23
DD
08
E9
22
E9
F4
04
F0
1A
13
C7
E0
2C
0F
E0
DA
0A
F4
23
0A
15
0C
1B
F7
0A
1F
F0
CE
1C
FE
CE
F7
03
06
D2
07
1F
F4
09
01
2A
BC
09
0D
F1
17
12
EE
0C
F2
09
19
0B
E0
DB
DB
06
06
01
EB
F5
EC
25
F5
F3
0D
2A
E3
14
54
08
36
C8
AF
34
36
CC
3D
DF
3C
E6
BC
94
97
2A
F6
CF
92
C8
B2
0B
E8
34
C3
FB
46
92
54
12
D3
1E
0C
25
D2
A6
C4
1E
3B
D3
B2
03
20
D6
31
4E
4A
A1
9F
C7
1C
48
07
23
C4
37
56
D7
E7
D8
F4
FC
99
AB
30
BD
FB
E8
BF
5E
42
DA
EE
A8
CB
BB
4C
0A
1F
1F
EF
FC
12
1F
D6
F9
B9
1A
B5
10
00
69
11
D9
E6
47
C0
B4
BF
90
2C
E2
01
B1
87
4B
AF
EA
2F
AE
CB
ED
AF
E3
31
21
2D
05
61
42
D1
55
DF
EC
26
C0
42
DD
D3
AF
F0
CA
BC
03
2A
46
DA
A1
BF
A6
02
53
3D
C4
02
40
9E
02
25
F1
38
3C
BD
B0
4A
30
D8
60
A5
A5
BD
25
81
4F
29
5C
17
84
3A
2E
01
2D
66
DD
E6
FC
C0
49
A4
A6
CA
B1
AA
E0
3C
FB
F0
9E
06
FB
A1
BF
59
D8
CB
BC
9E
CE
A0
DA
C8
F3
B9
D4
10
23
41
39
18
AA
4E
AD
F3
CC
3F
0F
32
0A
A4
1B
D8
D7
51
5B
02
EE
FB
DF
06
0B
2F
1D
AE
D9
D7
BB
25
A8
E6
31
29
03
F7
60
4A
BC
AE
D7
07
EC
F3
C7
18
8C
5D
22
F8
F5
D7
CA
A1
3A
3A
FD
1C
39
CF
FD
FD
F7
99
B1
02
FD
F5
AD
14
DA
A2
CC
EE
35
0B
00
DF
AC
AF
31
0D
36
DF
CD
AE
8D
C8
BE
E3
F3
3A
EE
EB
C8
DD
F3
43
99
E3
2C
E9
24
B2
5C
30
27
0B
13
38
AB
04
9A
10
3A
25
95
C4
A2
9F
CA
D1
34
3D
AB
23
FF
D8
F8
CB
9F
33
5E
06
EB
0E
10
E6
5B
DD
0A
F1
FB
CC
90
11
2A
D5
90
BD
15
35
EC
D1
A4
D6
4A
2D
28
8F
54
1B
E4
A9
12
AD
27
03
9F
50
A5
CC
D1
25
A0
27
D8
FD
A1
4F
B9
DF
91
D3
EE
22
02
F0
EB
4F
15
DF
E8
61
45
B4
CE
FC
FE
95
B1
D7
C5
3C
DC
9D
23
26
41
48
CA
A5
36
4B
47
3D
E6
D7
15
15
A7
D7
03
D2
AE
12
2F
18
CF
3C
23
E3
41
9E
E1
07
E4
91
DA
A8
DC
17
A1
1F
A1
36
BA
36
03
C6
A3
AF
F0
56
3D
10
A9
C2
DB
8F
AA
37
5A
FB
15
BD
E7
8C
50
46
9B
65
13
3B
1A
4A
4B
CA
B5
C1
26
45
92
D4
05
17
0A
52
B5
CE
18
17
1F
EA
DF
EC
9F
BF
FB
B3
9A
C9
07
57
19
17
19
